0c
fc
00
e8
ea
e6
e1
e9
03
f3
f3
04
10
ec
e1
dd
d9
dd
ed
0f
de
f2
d7
ef
f0
d9
e5
ee
f7
dd
09
ea
f1
e6
e6
f1
ed
f7
e7
e5
f1
e3
02
dc
f2
04
ea
f9
e9
00
e2
04
e7
eb
e9
ff
10
05
03
08
eb
04
00
fe
dc
ee
06
03
ec
07
0b
00
de
f6
e4
fb
ec
dc
e9
e9
dd
f9
fd
eb
09
06
ef
e3
ef
dd
10
f5
e5
f9
05
0e
f0
e5
d8
eb
df
ec
d9
fb
1f
e8
d7
d7
06
df
fa
f1
06
d3
11
fd
de
09
ed
da
e6
eb
02
16
e3
fe
f8
0a
e8
e5
e3
e9
ed
e4
07
0e
e3
e5
dc
01
07
e7
ea
f7
f4
10
f9
d8
de
ee
ed
01
d5
e7
ef
f8
eb
ed
cb
ed
e9
0a
ef
05
dc
0d
0d
fb
f2
e0
da
f1
e3
e6
df
ed
ef
e1
e4
03
e5
e8
0f
d9
db
04
eb
f5
e6
fe
f5
f9
08
00
0d
f0
02
f4
d8
ec
f0
e9
de
e9
f3
ef
e1
ea
f3
ef
ed
e6
0b
ec
04
ef
fa
f1
f6
e9
e6
f7
ec
02
fb
ff
0f
ee
d9
f5
00
06
de
da
11
eb
e6
e8
e8
02
07
f2
04
de
ef
d7
d8
0e
ca
0c
e0
fa
e7
fd
e2
ec
