0d07ff0cf701ff07
f4ecfcfdf9fef7e6
f8f60ffdfaf7fbe8
fa0a0409e6ee06f3
fbf9ec02f4f00af5
01f3f9f8faeeecf3
fcf501fd04fc0afb
01ea10f2fcef0804
fb040307010001f2
f0fb07e30b05fdf2
02ed07f80e01f6f2
f10204f6070003f0
ebf103e9f008ff03
000a05f5f60feb00
f2f001eefc0400e9
0fe502f002030609
22fa000303f80508
0802f70f01fb00fa
ff0000010f08ff11
000501030a060208
feff04fd040c03f4
fdf803f2fefe0004
01fd0704fdfffa05
0306f807f807f705
fefffa010101f5fc
09fbfc1106fa06ff
fc07f808f5040306
04fefc00f0fefdff
f90306170afa07ff
0a0400f30200fcfe
fefffe07f0fd02ff
01040e0af8fafc03
fdfcf1faf90f0ff8
f9f0f6f2fcf40af8
01f305fcf5f506fa
f0f5fbf402effefa
07fefcfc0301f4f6
fdf70204f201fff8
04f903f6ee08fcf4
050005ff0505f3f0
000bf5f204fbf5fd
f6f9fd0d00f3f9f8
01f7fafbf5fcfc05
e805f7070af9f007
0302f7f8fcf7f9f7
f702f0edf402f703
f1f5fc02f8e90503
0401f5fe010405f5
ccf6eff6e804ff30
0e1106fdfdf1ed0d
03e9dc0722f90604
0200f8061100060c
0b040df0e7f211f4
e9fb081011f80f06
00050a05ec100406
f6fee8fa300809e1
e41615fc1af81612
640209fb04050e03
2707f112090816e3
ec00f5eedbfaf3df
f0fd07f5ee1501f2
131c090df221f2f0
0704f81bf7fafe30
020110ee0307f1f5
fc1d14110f06db12
f415fa040200060b
15e1fce114ed05fc
0ad2e5071602fb08
0d0ff9ec04f30ce7
faf0f7e3f506152f
05fc0118ff16fefe
01e408e5121f030e
13f3e7dcfd06030a
eef5e5f7fe02ec24
e00ef505fff30ef7
36f608290108ef15
f907ea06060afc03
16dd03faec040bfe
03ddfcfe10e7f517
ecedec38f5f90df4
1306031109f928f8
0b0e0829fe1d1002
0308fd0718f1f109
f501f21b05f701f1
faff030de9f4edf6
0dfa1ff1f2f1faef
f4faff040d11fd05
09fffd0df8fd0224
1809fb02f8fcf3e9
051d0213ecf21a20
041c00f50401f5f0
01e1ebe710f411f7
e9fb1500010403f6
02f602f2f20103e8
1203edea08d207f6
0c07f7ea14f8fcfc
1303fcf5fe0bf902
fd08fc0301fc040b
fe03f70b04010112
fc0003080200040b
ff0007f60a020ff4
060000fcfefc05fe
0503ff0511f5fe01
0606ff01ff01fe04
fdfbfdf8f9fa0600
0402fd0cfffefbfd
fdfcfe03fd0ffcf7
0a0802fbfb0203fb
fc040001fc0402fc
050a0301fbfd0401
0907021606fff902
f1060b01fc04f905
f5ff1505fe080cf5
fbf7fd0afb03fdff
09fdff02effbfcf2
f7f7f3fcf5f7f6fe
0302fc010600090b
fe041a08f501f1fe
f203fa03f4fafffc
f8ee0b000400f9f0
f806f8ff0df9ebfa
ed0100e8ff01fd0b
fafbece9f900f004
f80b0bfdfaff10fe
19f9fceefefef7f1
fbf5fb03f5fafa0b
fa09f7080804fc03
fe0bff0bfd0006fa
1302f3f3f5e00b09
f41a021cfd14f8de
11faeffe09fde201
f6e5f0e70003f307
0f07f6f506051a01
031611fbf5f12902
f5ee0615fa0ef0d9
fff911f8ff1af8f3
1204f1fbf82206f6
07f7ff0901f4f703
0ae0fdf50228f510
07111607c9fcebee
ff09faefe111180a
f70add0deb281501
23ecf3fdfefbf1fc
002cf309faf7fc1b
f9ebf0f4eded08f7
fb160d15fb03fa11
e8f1de0b1c1807ed
ef01ed010f0b01fb
fafdf2fd0f1c0b05
fdf8efe5fbf029f5
fdff0d06e61cfde9
0907ff0114fcf8f1
21f7f9ec04010105
fa04f8f1fb060be4
0bf21512fff30c08
1b04ef1ddef9ffe4
f104130af723f8ff
ecf0fdfe04fc2afb
0cfe1bfdf7f21e2f
f0f1fb1310fa05e6
fb0602040a04fd00
faf8fb02fe051216
fcf8030913fefb02
06060002040e030a
0600ff06f802fd12
0003fa04fcf70706
010401f60201fbff
08f4ee0b0305fc0f
02f808030008050d
090305ea0d030410
01f4feedf10f06f7
fefbff02fbfd0907
040e0b000f0008f2
0df60aff00070201
03fb080e08100315
f4fc01fb080a0cfa
fffcfefaf8faff09
03fd0103fffc06fb
f809f7fe0afafcfa
f80000fb0303fe04
fc03020f05ff0302
01010402050109ff
fe010003fc0bfe06
06fa0afc070201fd
05f60700fefe06fb
0304fa0602fd0105
0efcff080502fcf8
f8fe0400f8fdfdfb
fc070101030506fa
0502faf602f9fa00
fc00fff9f10401fd
f90407fdfd0102fd
e303fcf3f6f403ec
0eecf4f400f8e613
fcf815fdf10701f4
fc0801f4000006f0
e700ff01fdfdf50b
daf7f01dfc02f2fe
fefa0afbe1fb02fe
f9fffa0920fa01de
0801f41a03eff1f2
e5f4e9fb120aefc6
f7fcfa0e0f02ec06
eb0d0a0b0aff08ef
f4faf6ff0bf1e907
17f5f1f710fef80b
22fee90f150fefdb
fbf7fcf901020c02
0fee07f610fa06fb
ed1c0005041b0101
0703fcdf07f7ebf3
00030003020c0802
05fd01fafc0902f2
f7fefceeeb0302ea
f804fd19f5fafe12
f1f8fd1cf40801f2
f605f9faf9f20404
06f3f500fdfdf80c
07ff060e130e160b
01f406fbf2fd06f6
04f4150a1afa0dee
fcf7f80403faf2f9
04f1f803ef0c08f5
fafd160afafffc04
13ebf9f802f2fd00
f5eaf00202f60306
f013f9020404f2e9
20f3f8ed00f4fe00
0108f4edfff500e3
0a010d06fcf403f6
03f80601eeff0405
0cfb090d0d1302f5
060110fb0406f9f4
ef0aed170014f7e5
f1f4fd0f280901f2
fef506fc02fffbf3
f3f9f9d7defffcff
10ff041e0610d8f4
fafcf5f4f5e506e2
fff5f6eef409fefc
0c0207fb0101f9eb
f8f715fafb06060a
e505fff105fc03f9
f8ff01f8f003faea
fefbf1000bf9fc06
fe00e8ff00fcef10
fdfff80aee06010f
f4f804f4eefdfbfc
fd12f3f6fdf6ecfd
ff1006f002f9fdf2
0a04f8fefcfd09f5
f8fe10f405ff0010
f105f2f6f2e7fef4
09f2e603fffffaff
04ebf6ff08f6f5f8
06fefffaf1fcf208
0105fe00010704ff
06070000030409fe
f703fe0008020000
fa0301020b050610
fa06fd01060afffc
0afbf3fbfcfe0802
0603ff0400fff7f5
1506f9f4f7f90004
0405fd07f6ff03fe
0103020a0afe020a
f307090bfaff0cff
00fbf703effdfd08
f4fd020706fefaff
02f90101f4fa03f6
0904fefe02f207f7
02000604fd02fdfb
05fd00fb00fdfffc
0103fcfe00010001
000000000001fefe
00ff00fefefffd01
fefbfe0200fe0000
fdfc060102fffcfd
00fffffd00fe01ff
fefffd01fe010102
fdfefe01fffff9fd
fffffffe00fffcfd
fffbfefdfd020001
fc0000ff04fdfc00
fe00ff01ff02fb00
fffffffffffd01fb
ff01fefc00fcfffe
fefdfffc000000fd
02f602f50b10f906
ec0ef600040009f6
05fbfbfe00f60811
0406f70a16fc01fd
05f4040c0304fe12
f50212faf7021310
f808ff0f07fffcf8
fcf40102fe000207
0c0ee9fbfafe0408
0f0a0efefe0ffc13
08fc13fefa0c020a
f70201f9fa01070c
0e01fb0cf4fe04fa
03fff803f5050304
051d0716e6fb0407
f30bfcff03feeff2
fd0a03fdfb0302f7
f0ebf801ff01f6f7
fa0a1211ed0dfcf7
f71404faf400f604
f8f7f6ecfbf40202
0a090d050803ed00
fe01020115f504fb
f2000d0bf6f901fc
fd05f90afb12ff07
fef1f9f6fbfbf8fa
f40500f4f90303ff
12060b0509010003
fefcfff3f71017f8
0dfcf9000006ff02
fa10f1f301f905eb
f9fc05000401fffd
ef09f61f0107ea1d
f92709260b04d9eb
f0faeeeefbea06e6
fcf703e90900130b
f7f91fff0d10dbe6
f5e01cf6f818f937
f8ffe90400fe00f4
f7e301f3c8ef09e4
fa07f6f2f3eb17f4
0902f7d0fceafef8
e41ffb4afded5701
04ed0c01dafd1dcf
dcfd2602feff08f6
fcfe06fff904000c
fb1900eeefeeffef
ffeaee0405fdfcfc
ed08fc02fefa04f1
f6f0fcf5ff040df9
fb01fe05faf604f8
f60f07f9f8f6f500
fdf603fff6fbff04
fe02f0fd00f7ee13
00f8fb010c0d05fe
ff0109020200f90e
fd0807fbfdfe06f6
e8f602f5060402fa
fcfafbf6fb02fb02
fd060504ec04fffd
fefcf3f2fafa000e
00fafafdfef503ff
fcfaf7fc01f8fff4
f914070803fcfdf3
ff1305060a0a1f0e
fe0af704fafb0408
18fa030b1b010308
effc0602040a0d0f
0bf4fc0ef0f1fbfb
09f6fe0708f705f6
fbf90014f5f1f5fd
f407f7fbfa060202
fdf500fe07feffff
14fafa110df1040b
fd010602040411f5
04f1f403edff0808
f7ee130dfcfe0efe
05f61b1efdfff6fc
04ee01f406fb0c09
07fb0c0a0205130b
fa0d06fcf7e7ea17
0cf9effafe0df7f8
10f8eee9140d0efa
161301080dfbfa01
06030808030802e5
ebf322f2f60dfc24
fc07fcfb0c0502fe
2105ff18f90f0f1d
f120f20402ee0f0f
010901f6060e1004
fefeff1310e702e4
06ffe70713f9f2f4
f2ff1cfffb0c03fd
0f27f309ef0ff417
00fcfe051c0b0409
fef3fbfc11fefdf3
0e04f6051ff6e005
fd16fe17f9fc08f2
e7e3e6de06fa0311
fde800fa0e0ff8fb
e9fcfbfffc051430
08ff06eff6040b0a
200312f7e1fa0806
0c05f4f30c0ffde8
1502e1eff8f913fc
fbf803f6eff9f200
f2fdf90a1cee011d
ff05f708080706f2
eff8f213000f0eff
08ff0d0513f71bf7
16f3f80bebf3080c
fee821fd00ffeefe
fc0301ff0100f8f0
0afd0810fffffbf0
ed04f903f701f4fd
f8050406e0e8eee7
f9f0fd0102f3f801
05edf500f7fcd9f6
04fa07f7f40a00fe
03f60af9e4ff02fa
fc06ff0afe09faf4
ecf7fd030003faee
fbf5fbfbed04f502
0100f30119ff0504
f3fdfefe00f801fe
ff0405fdfdfcf2fa
0b02f6f7f6db01f5
fef912f30af8f10d
fd0bf8f7fbfc02e6
f80200f3f90103f6
e405eff5f00df3f8
ff0304efeef7f402
fcf5f8091c0005f0
fb070802faeeeef6
02f9f7ff040ff5fe
02fb0808eaf9fcfa
030b020ef7fa01fc
f5fefb0f01010af9
f2f602f9ee06ee14
03fffa0203fdfbef
faf8eff5effef8fd
f505d200f608f5eb
00fbfafffcdcfaf8
15fd09ebfef3fcff
fbde000c00f00700
e40fea04fef5fde3
f8f0ff1a0ff3fcf1
0217faf91107f9fc
f8fdf001e514fbfa
04fafd0feeee0825
100aff0ffe0cfc04
0701f800ec02f814
fddce3f20bf20201
01fd1cf7f508fe0b
fd0f041bf709ece9
fcf3f8e70ffe03f8
03050dfb0af610f6
2af806fa10fa13db
3ae00208ffe5e5f5
110af6ede60bf6df
fc02fd04fefc0604
09fef70c02fffaf9
040300f704fbff06
fcf9fbfa0206fd06
040400070005fb01
01070bfdf90004ff
0202ffff02fdfbff
0401fffffefe0115
00f907f800f9050a
f60bf80700fc040a
ff06fdfc00ff06fb
fe02f7fefbfd0300
f7fc0002f60005f6
0900fbfc020bf8fe
06020701fc03f806
03010102fafdfdf9
fbf3f40c09fd00f8
fd06f51aff0ae9ed
f0f604e704fc0b00
02f005fd10fefa0a
0e030cfbfe0bf700
00f100fbff0806ec
01f6fdfd04f5040a
0004faf30f0909f8
03080ef2f8f619f9
fffb0af50a09fa0d
1005030f03effdfb
fb0200fefe0a05f6
00fe04f9070305f4
fdf901fb0bf513fc
f5ef08f1fcf101fe
ef0409fafb04fdeb
36ed0b10f2fef9e7
110600f6fbfafbe3
e3e229e6ef0ef8fb
e703edf803f100fa
170905f00af6030a
ef013ae5ebfc01ef
f903e610fff60ae1
fffef7d601faf7cd
03fb0bfb09021928
ed0802df041904f8
f4fe04190ff3fbf9
f2f0020e20fff4fe
1b02f5fb11020f0a
00fc01020113fafc
fcf20afe13e6f207
f7f3060e010507ea
eaf906f8f3e8d60a
fa22e00cfff4e13e
030f29dae9f1f8de
1115fedb060902f9
45fef503fd0a0712
f7d415120efb07ec
e813f6f6e801f8e8
271bf3cf0201fbe3
0aeee7f30012ee12
fb19f20df802fb0f
e906e5f1f80400f6
0027dfeb23fa20f4
e110fa10cae6ec02
fffafb240fe6e81f
f4fd0bf627e20817
0f16f328fa0543f7
1504f304fa100af5
17f3fef1f913f811
f102fd09fefefc00
080ff100e9f1f8ed
f1fafef1f900ea04
06f000f9f400ef0b
07fa06f4f6f700f1
03eafef611030003
0010ff0f160c11f8
edf90703ff0606f7
f9fdf4fefe03ef06
e4030b0d030707f1
09fff2f202fef903
fafe08fd040204f0
f30cf7f7f302feee
00f405f8f1fafd02
d0ee0ffaf10bfa01
f801f3060708ee18
f7e1e102fcfe0212
fadc02001818190b
e8062cfdf706ecf6
0a08ffef03051422
11fef611fdee05fc
f51d011cd40503f1
f20005fbf6f81301
fbf8f604e6fbf81f
fbf7f90f0209031a
fb0c0506fdef10f3
f307000c7cf9f708
ea08fb1013fdfbea
eaf6080cd501f9fb
f604080401ffe911
0202fa0800f80201
150cfbfc03ff03fa
f6fcee04fe03fd0e
030101ff0d030502
fcf9f804fffff9f3
fc06020bfffe070c
f7ff0bfff8f9fd0a
02fb040107fff901
03f609fbfc0613f9
0efcf804fef8fb09
050709fe06fc08fe
fd09fff000fb0611
f90305f8050100fa
06f8050a0c060bfc
0013050eedfe05e8
eff8fcf8ff00fbff
f8e7e30af508fc07
26142413fe35f601
f3f2e605fc02fee5
fc10fb0f0fddf714
08f0f80405100bee
10fe11e2e62bed1c
041cf4fcef0bfcf9
f9f1ed0af7c0ff00
fa2e0ef5fef2f1e2
000d46cf0be42d09
f21e063302eae3ff
dce801fff9f20ee4
e3f4180e1fd8ff0a
10fd0bfdfae43be8
03f6101206e5f60e
f9f308f9f2effd0f
ef02fd010516f106
0a220008fe06f3ef
00ec0410f2050af5
06effef8fd0cf810
1b010cfb05f61017
eb02fcddfbf103da
040a07fe09ebfefb
00f903fcfaf5ffdc
f9f31111f717e519
01ebebef000e12ff
f9f9e3f9ff0df9f9
0303192d1efd04f9
fcfbfafd0105fbfe
f517fd07e307fe0d
eefbff0917daf9f2
faf20af8fc02e20c
03fd0506ff030103
fbfc0afafdfffdff
0204fdfffaff00fc
fffdf804fafefcfd
06fb00fc02fc0409
f904fe0003fdf604
fc02fff9fa0101fc
fafbfe0010fefe0c
fdfe0203f9ff0500
04fe03fdfffcfb01
f6fff7fdf8010106
fc0003000b00f702
0500fffd06fcfc02
ff02f50803f7ff02
fd05fa060000fd01
0401f5fe02fe0500
f6e3070a0612e8fc
fd1d2c1c0c08f4fc
0e040600fbea0904
f80a01060507fdf9
fafaeffaeceff704
f5efed05f90a1b2c
06020309f50ef9f1
28f015e6f50ef703
0fffdefcfbdcfee9
0401fd1409fefe02
f4e0faf805f8fdf2
150801eff3f601df
e9f22713030504f8
13fbddfefbe9f80c
00fa0106f709ffff
11f6f408210502f0
ff030201fb02fc02
06fe0001fffffef9
f3010901fef800fa
fffe02fff7fcf6fb
f601fe000200fa02
070201fb07fcf2fc
05fd01f8f00400fa
fcfc04fc01fe00f0
01fbf9fafbfffc02
f1fb03f200fcfbfa
01f900f80100f605
f9fb02fd02fe07f8
00fc08f9f8f8f9fb
fd01f3ff03010102
fdfafef7010002f3
fef802fc020307ff
030005df10ffe907
150dee1100e1f311
061324ef1802fe0c
0e33f3f421fa05ef
01f4ea16ef25fcf1
09e805e704fb0c1d
0df8ee12ffec020b
f1f70c020907e909
f8ed3bfc0721fb0f
09fffd2a09f3f406
05fbf20aff000af3
01f5e7022100fdff
22ff0d15efee1e01
0d2007ffe01009f5
f0fc1afde6f40e03
fa0afb000b0407ea
0b05060304fdfd00
0404fefa05fa0801
f2080302fefbfefa
fa0501f2fffef6f7
06fcfcfdf7fdff04
fc07fcfefffcf9fd
04fb00fafc000306
fbfc000102fcffff
0102000307000702
01fd00f5fd000105
00f8faf9f8f9ff01
010400f9fbfefe01
02fa03fe05fdfafe
030dfefef4f9fd03
f909f7f2f5f90102
07010af903fef1fb
e703ff02fe12f602
0108fa09030209fd
01fbf8f70dfc0510
0609f9f511011303
01fe02100efb0403
f8edf7f904f90605
fbf5fa0af905f6f9
03070af0fc08fefc
09f7fc01f1f80003
0f01f31104f80900
f6040805f9f81209
03f8fd07f306f3fa
fe070b0a0500f3fa
efee0cfb14f9ff0e
fd010903f5f713f5
ee01060306fa08f9
f9fcf709040aff09
080a0c06fe08090c
06f5f9fc08fc0710
070904eb1415fe04
f8f3230700050900
00e601f707fd13fe
f607f0f507f7fc13
fdf70d030dfffc05
02fa0200fd0aff0f
090f0b09fc050c0d
f80119f8050df506
f9020a00f212ff02
fa0d0c1212f91101
1501fd04ff02f504
03f00506f9fdf71d
020e0102f810fcef
00fefdf107f7f7f7
fcf9f0eefb07080a
00fff507f407fcfa
fb03fbf9ebf5fdf6
fefc06fcf0f80d03
01f503f400faf5f0
0601ff02f6f9fff8
ecfa0005fa000105
fc05fd07fafdf406
01f9fef9f7f8f6f6
fefbf601f009e70d
ecf9020108fcfbf7
f60000f30207f9fa
f8fff704f9fa02f0
0500f90912fdf5f0
f7f7f7f70301fa04
f00bff07fd0901ee
03feec0405020809
08f8f4e316020cf6
fbfeff000e18fb12
070a2f0909f9f501
02fc02e805010606
f30ef30806fd09fd
ff06f52a16f70002
fd050bf70310dc05
02f3020609f70810
f6feff080908fd06
09f0f7fdec0d06fe
ef090121fd12f822
ff180ef1ecfafff4
f4fa04f0e8f8f2ec
f10cfa03f2fe0901
1b07fbe904fdfaf4
02f21b02fdf3f6f3
fb0cebe219f907ea
020503ffebf4fae9
f100eafff8e7f307
ef05d3fb0006f1f7
050200fb04fe02f7
f0070d1afef804eb
f309f1fff7fb04fd
01edf5fc0c06f2ec
090b02ecf701f8ed
f7fafbf713000cfd
ebf5d8fd2001ff0d
f5eeea09d6e909f2
00f9ecdaf1f60505
fcf6f706fdf70404
12f9120afc00fff8
da0af7f501ff0619
f8ffdf0b03fe05f6
090d0b07e702f8f5
f1f4e90400f5f909
ea0df3faf0fcdaf2
fffc0ff50c01f5fb
03fe0705f907fff7
040c001bfafaeafd
080207f00106fb01
ef09fee3ef06f611
fd04fd0de6fe0bfd
fff700010cfe0605
f5fdf604f1f1fd0b
fff9f408ff0903fb
fdfc03f307f9fe0f
0500fffdff0e10f7
0201020103feeeea
f6f210060cff04f8
09f902fdfe161b08
f2040004f104f7fa
0e10fbfd10fdfc09
fe00f80c0c0e06f8
05ecfbf2fffafe09
15f902fbf3f905f9
0cfc00ef05fefe0a
fffcfe10f50b06fa
03030301eafd0204
010709ef01040ef8
fb0404f3f60704f9
fffe080bfdff0603
07070504fb031302
090dff0ffbff00f5
f7ed08fbfafc00f2
faf81803e3fa04e4
fdeffcfded09fdff
f411f1f0fcf9f8f6
01f209090601ecff
030305f7070206fe
fdfbf7f1020808f9
0006fefdf5f3ffee
f4f4fed80700eff3
fbfaf41402f11afe
dcf90704fef900f4
e403f4e0faf6ee06
fa04ee0001fbfc08
fef9fe04fdfa0ddb
f0f105fd010808fb
fbeefeff120afd09
1d08020403f9ffee
fa02f9f80506fc02
f8f5150309020211
f4fa1a080cfd12fa
f3e702f70209100f
0304f905f501fff1
01edf0ecf70204f6
fbf6fcf6130500ff
f4fc01f8fefaf1fb
14070d0908f011ff
0100fe22eafd09f9
edf3ee08f9130aff
fb04140ced040803
f6fd0b07fd02fd00
f8fa000ddf02f3f8
2418030dfbea03e9
eefeea00060ff0f0
f103f8fc04ecf6ea
0622e6ef02e6f8e5
ec06c3ffeaf8140e
fc01ebd3e9e9f604
19f1effa15ec030a
1900da06eafc0a23
18f00016fa1deefa
0afcf6f0fdf806f2
fef2dffaf8f30af6
e7e70609abf0fbe3
231f0af4f9ffffee
f91d0b13fcfa0003
e9fb02e6da15f9f6
00060b04fdfb0414
fe041304f7f8edf2
05e8e6ee01fef5ec
e8fde42fe00dd8f8
03fc0bff024f07fa
09f5e5e40cedd8f8
05fa19f606090b28
f1090f08ff0ff500
3116fee8b40702df
28060a2cf12ad704
0bfb03ebeaf40603
f508eae6da01e609
e80b1efcf3fafd0c
f4010bf3f2fe3e00
e7fcf501fcfbe2d1
e011fd0b06f712b9
0a04f3e30301fcf8
07fa0f040feb0302
f808f81603fb0108
01f9f717f9eefbf6
fefc0b0207f1000c
f802fd05f102fd0b
0df3020406f80c1a
efff05fd02f50204
ec00f606f6fefae9
fded0007f5120625
10ebf5fe030b0404
000510f417f505fc
f8fbf9fc01fffe08
eefb2108f40a07f4
1be904f30bfbf2eb
0402f507fef5f4e5
2c03f80005f5fd07
080701000102f212
120c0003fffaf506
1ee9f80611fb0009
14eff1110c0b0c14
ea02eaf0f6f4fc00
f8fcf5ebf8050f11
f7fdfe040a060302
fc05fbfdf10e08d8
fa1efff614011800
11fb03f2f6f80f33
f4f00414eaf60305
31ff0606f309fcfd
ed10020b180207fa
fcf1f900fbf91e00
fefef6f2f803f80f
f4f70818fdfe08fc
ed2a0916f6091236
1c00faea01f1e0cc
21e90ed0140d1cfc
350bfc0004faf7f5
2409e3090408edf5
e820e1f2fc0bf0f3
06e30703f922ec1a
fbda0710f8ee1202
eb020ceaf804fe20
060105fcd5f2fde5
fcf9eef6f4f72cec
f6fe0403d614fef2
01f6f7faf5f804ec
db04f406e70c2323
fae8fe0900eb020c
00f804d8fbf93816
05f1ff0404fefa02
f80a14fc0201fe00
0400f7070205fffe
fafc08090800fc0b
fffefffc030a000b
fef30107ffff0908
02fef90d0604fd00
091402f40802fc0a
0401ff0306f9fb00
0903fafdfe05020b
fd0806060300fe01
04fbfd08f2000002
07fbfa0cf30bfb0b
01fcfc0a06040705
09090902fa0eff02
0102040f04faf5f5
f3faf1f01f18590c
14fcf9ef0525e4fd
160c11fe1f03f03a
ff1c090707faf90c
1bf907f6f7fdfb1c
f024fc0cfef9fafb
f5fefdedfe03eff9
24f40e000403e606
1302fe04f7def7f5
f21af70325eff8f5
06ec01f4eceefa25
f8f4fb2defed1ff9
00fd1e0f0af2fa01
fc1102fdf1f30529
17f804f60bf10209
001200fdf30b0110
08000501f202fcf8
02f8fdfefbfc05ff
040dfbf90111fafa
fcfff806f4f4f3f2
01fb03f902fefe01
04ff0afefbeee9fe
fffefff7f5f807fe
fcf3f9f6030a0104
fe0000fe0d0500f4
ebfb08f4fc08fffc
f3eb02f2fbff0206
f8f7f3020dfefe07
0efbef1109faf203
000df2fc0202eef9
01fefaf7fbf901f7
00041beff0fefb0a
13ff07f905f6fdf2
140becf5fd00f5f7
00fe03ee0e0e04ff
fd0c1bf2f7e804e7
07f7fdf907f308ea
0df222eb0505fbf3
070006f6f3f806fe
eb0301f3fbf8fb12
f3110b07faf6f405
e3fc0909faff1709
f111ee17e901f0e8
f502fc0609fce8ff
00ff0606f6f1f505
fd12f4f8fa14ddfb
f4f4030cfed5f6e5
f2f514ecfafdeb03
f41703fa01fa151e
f40af9020201f6f3
0afc1efb15fafcf8
f7f7f5050806fa02
0307ed060afffa02
08fb05e7f8fb0304
0200fe00eefcff13
16f60f1a03fbfe09
0fec1000f5fc0502
0102070508f40c19
f8fb010404050eec
fcfc07f6f7030105
10f8f5f505090cfc
0afcf4fb00fc0bff
08e701f7fdfcf916
05fbea0508020501
fe00ea0007fde4fa
e20b0aef02fa04fc
06f6040003fd07fa
f10004fb01e7e308
ffe5fc04fb07f9f4
f20b18ec00e90303
f3ee0e0906fcf001
020af60a01f00202
f3100cfc05fef7e8
01ff00eff518ffff
f2f7fcf705f00607
f300000603f50208
fcf5f5fef4ff0af7
0c050200eb0ff9ff
1400101100fd08f6
06f70f0701f90004
0bf20bfcfcf6f509
ee19f0020af0ef0f
fc0102edeefefc08
02f8dce90f1816fd
fb0c0003fe0afbec
f6eb101301fe0616
f8ff0cf3f1fff9fc
e807e9ffe7f609f1
ff0df5f2fdfbf7fa
1dfb05f9fd090b07
2505ff190109efff
0d19f7f9040f0bf4
e6f7081eec0809db
11f212fbfb29f101
11ed0508ed20fb02
e60cfefef0fb0308
e9f4f3ee150ef019
f810121007080000
09eb1be309fcfb07
f7fd0202050106fe
f700ecf8f1fbf9f8
f5f00cff0d010208
020cfbf9ee08f903
f60afd0319f7061e
0f230903f805000f
2c0a010f05fe090c
120602fc18121a01
0beff804f8fb0705
effb0205210efd05
0b0505fe05f70b10
11f80518f90e01fa
03f9ff0901fff8f4
00ffedf9130ceffb
f002f4f20011000a
fc1ffe090f0d09f8
f804241e04fa05f3
f3ecfceff4f8fcfe
0600fbe514f31ffa
fffdfd0846ff05e9
1104e103f1f910ff
ef050c0afafd0f05
f40a2cedea190a0d
0aedfe141105eefc
04f0fbfd1606e9ea
10e208f8fd0dd0e4
fdeffcff02fc1408
0ddff9f71009f6f8
f20e08e4180f15f7
f709f80008fbff09
1304f609fb01fb09
01fffbfa0a00f404
0209ec0e0a06f908
04fd1a000c0bf604
02f608fcfaf905f9
02fa05fefc060006
1010fef307080508
08fa0af704020afd
fffef50101fc1005
f704070df7fb00f9
0afef6f4f3f8fce7
0101180006f305f7
01f301ef08fcff03
0efffd02fc0202fd
000014f810f909fc
07f4fbf8f7050201
f714091502fd06fe
fcf90007fe0709fc
fd00050b080607ff
00fdf6fffb05fbfb
f7fbff02fef60efd
050603000001f709
14fafc0cf402ff05
04fa03fbf6fc0202
f7010002f9fcff12
fa1b000ff7f903fc
08faf9fd0b000101
f6fff80c0a0311f9
1106fdf70b01ff04
03070605fef30203
ff0b04020f0204ee
e4f40005fe07fff9
eb0afa0600fcfdf2
0f0700000afe0305
000609fc13030900
060202fefd020bf6
09f5111103030b0e
fb020a04fcf8fd02
ff01f52008fe0324
fff9120d01fdfb03
f8f3f30cfffffb13
fff70afffbf807ff
07f708fafc05e7f7
07fc1107091007f8
030309ed00fe10fb
f5fd010ef103f503
f6fbeb1806fefdff
fbf3fcfef4f3f931
e5210c000019f405
efe5f40303fef605
eafc0bf00405fb0c
f801fbf700edfe02
00db1010f0f405f3
f0fe0314fceffef9
efe70003f002fe10
f6240afa050020fc
14fc0cf603fb0f0a
04fe010a1f0810ea
0bf4fd0104fd0bfc
f9fe092407fcf3ed
f1110dfff601fdf7
f8fe0508e90b0d12
0000f908f902eef4
0807f81108f6fa07
fced000104011102
040d08f2f0f807f5
fafdff01f0f1f4ef
02fffaf8f5fd0700
0405e8fa0bfee501
1400f6fdfef4fffa
0ef7fbf20afe03f8
fcf9eef7fef4090e
01f9fae700ff02f0
fbfbfe0503fdec04
e5030a0300fd0be6
05f706f6f5eb0908
fd03f9ff0402f6fc
02fdfdf9070804f6
03fb07f10101fd0d
140a06e60c0ef305
d0100104fb080904
2216e2e50210fc04
fef806f205100a11
fc040407070c000e
fa0621f005051c1f
0202190430f3fcfa
1c1e08f21b0705ff
f3feef03fcfadefe
0af8f923fb080610
0d080f1c1f23eefb
0ef7f0000fffff00
0a000300f10b15f5
ffe1faefec02fe20
f71b09fcfafafe06
1802f401ff05f610
fdf10c01100be506
ef19230ffdf9ebdc
0bf1ea2c0cfaf603
08ed031d0607ff06
f0f7060b0a011106
fff6ee0000060507
f8f7fa140516fd05
0bfbf7eff10301ff
02fdf00e05faf6fc
0b02f41901e8040b
f3f309f30a12f9f3
01f5f6fce50205fd
fe00021302fa06ff
030f2f0a0804f70c
06fd0a09f003fbfa
f2f8ff000004f7e7
0edff7fa00fbf808
f7fd210201fae6ea
ee01030316fef7f9
f503f100080cf830
08f9e8fff1060706
051bf501fb001701
f9fdfb0d09f8fe04
12eef7e106fa07fa
0701fff4fe14fa04
09fcfb06fbf8000b
eb0b07ec22f4fef5
1ceaf606e301fee0
f204030bfe0503f0
100409efe804030e
eb11f7e2e42bf8e6
f107fb07fb00f3fb
10f106eb02f7ed03
f934e9140823ff0d
0bfbfb20fcf9e900
f9fd0b07090af509
0bf40b05ff061d08
12ff1a02f9f123fa
0ffefc020ef901f0
eef8ecf7e7fefb05
03e7030aef04f8fa
f012e9f7f9f7f719
03fc07fafb05f30c
07fef1f8f6030903
f3fa140d00ff02ff
fbee0203ef0201f4
12fbff09ff0301f4
fc15fefaf4010517
01f7f8fafdfffafd
fb0d0afd0cfaf2f6
fbfd06030afe00fa
05fbfaf009090008
0a00f8ff02fc00fc
0dee0afc03030afd
00ff0611eff0fa05
04fefaea14f60af9
0409fe02f1eafefe
0310f8e20103050c
080300210dfb11f7
0e041000030102f5
edeefe05fe030815
100afffbfbfd01fe
090a0dfcef0801fd
fd04fe02fffaf31d
00fb09f709020bf2
e91cffff00fff60f
f4002217faef0707
0e0618010af70305
fef9fc19fce5e330
2101060f1cfe0300
f8020f0edf09ff4f
40fce8ea04ff0b0d
f206fbe9faf30e10
4bf50ddff80d18f7
fbf00f0f1ae614f9
00ed29efecf8ef0e
f10cfb13030e180c
0e0c16e7d7fa0600
17df08f93ef1071e
00f4f9ec0101fc0c
00010cfff00c0feb
1fff000df5ffeb07
1ee51814f9ff03e5
f9fd010fe5efebdf
f2ebf9f3faf0fbeb
f2ed0f0b00efee04
fd0000feed0108f2
00fcfc15e5fbf9eb
f4ffecfc04f202f5
f5f500e4f2fd04f0
ffe70303edfde7f4
e6fa10f8f406f216
00f805ea1001fcf7
08fce3f223f71706
11eb05ec0f0af1e6
fbfafe13f600fe07
dd0508f306eee5f9
e6fee9e000041309
00fe0106d8f1ede4
05fbef07ecfbeeff
03feebfeecfbfb10
050915f20a05eaf0
0afdfdfa0af302ef
0cedf4e4e21a0fdb
f1010205f0fff608
fdecf6eefbfefcfd
e8ff04fd1208f207
ea0008fdeaf9f6fa
f507f50c03f8dd1c
ebf50efef9ef01f8
ec08090f0b12f5ee
f30101ecfe05f609
0cd8f1fa06ff151b
0cf10d1afbf907f0
240ef7001e0afaf9
effbff0a06e9f029
f508192ef3fcd8fa
0605202603f8faeb
242b01ce02e60df7
07ec00ffd4ed00fd
f0efe20ef3ede70c
0802eb010bf5f02b
e30ad5f6fa17fa72
05f8fb080eff04d9
e80d080105fceafa
ed00e4eff202e6fb
fcdbf9d1190afd29
2908081cf2f431ff
d13a08f8f908e505
ede9ec14ffe40bee
140dfa230df6f905
fef1010d29eff615
ebfdf1f9ee05f902
1303fcfb06ff06f8
f0fcf600e8f3f5f1
ea0b004d09fe0c08
0f380801f4fffff4
1603fd0df3fc04f3
fafd260bdffdf8ee
f3fdc6f81403e7f8
fb08f20ded10f802
d9ecfee4da02e5f5
ebecf711eff8eddf
f2f9f0fee101f110
e304fa3ff1feebf9
ecfd011cf4eb05fb
f2f82c0900f805ee
05eafaf90802fa02
0fe718f4f4dbdb25
f5f4edf601e50132
fef7efdeef0bf4fc
eef4f5020d0ae323
090232f500e60565
fdfc01e90afb1222
f5eff60aebe80bfd
0a07f9eefee2f6f3
1df1fc0015ff00f7
03df0313f9ff0003
f1d9060e05f2040f
d5f3e5fe0c05ddf6
f701f00706fef5fe
010afb04fff81111
fffcfddb10eefa0d
fffb18ec0815080e
0702fd0dfc080400
f8ef0bf204091306
0300fdf40ff9fbf9
fcfa02f4f202fdf3
01f4f3ffeff50401
01fb0d01fcf5f908
1d01000f11fd0f08
0e0dff15f1fcf4fb
ec04fd02130601ef
fd02f810f4f104fd
fefd0802e7fafffe
0605f607f2fc09ef
1906fb1ffde8fd02
f601f700031017fb
fdf7f926f4f7feec
f00007f405eef4f6
06f6fdf4ecfaed0d
fd06090aecf8f9eb
01f7fff00bed0a08
04f1110a1500fc09
00000af9eae410ec
d7f3ecee06f6f9f6
fdfd17e0fbf6e800
ff0e15fb0b00fef5
0ffdfafef9ed0d2b
feece91c0d1eea19
06f11df3d807f7ee
ddf517fefffa30df
eff8fa03fefdf617
f20e000d0207fcff
05f0010503ff08ff
00f8f9f804fafe0f
0c0007080412fc00
1206fbf70606f4f3
0003f81bfdfff9f7
f900fa0004050018
fcf3f801fa020907
0603fcfdf80d0012
fa1a13040dfcfafb
06fb08f3f4fd11fc
f7051102050808fb
f2f802f503f905fe
01fdfd080709f403
05fef6080aff06fb
0006fff7f50203f6
03fc04f9fcfefef2
ff07050302fafbfe
fd04fffd00fafffc
fa05f5fd02f800f7
00fe14f408fcfd0a
fd030602ff0200f5
0204fff8fffe04fb
070bfd00ff05f802
000204fd0109fefe
05fa000306fffaf6
fcfafa040801fe01
fafffbf8fdfd0505
07fa0600f906f602
f4fdfff504f401fe
fcfe040100fb0204
eef80ff4f1f5f203
0a0de700fc041ce4
f7e9f8fdd1f024fc
eaec10fcf7daeef2
f6f5fa03e1faf8f3
f91432f8e7f7f8df
0dfff905e7e507f8
f9f3100de406ffe4
1eede5f906ed03f0
d3f707f8fdebff12
fd0dfaf2f814f605
f4efe80a1504f2e9
e70c20ededf8ec01
24fbe81d0607efed
0306f60d0602faef
f2f21dec07f8eb0b
fbf408fb010df304
03ff0418010dfa01
f8f0f209fff1fbf6
0e041005fd000309
f60615eefffa1201
fc0bf9ef04070e08
edfff7f9effcfffc
f2fbfde6f70001f6
0601f906ecf90209
03fe01f201fa0307
0102f90cfef00e12
10fcf7f5f6ff02f8
010f0606e7fc0702
0dff060efeedf9f8
0a0b0301fafff1ea
f907f40d0f050e06
ff080106fb0207f7
04f1fbf8fdfb0108
f30900fff600fcf4
fb05fe04f2fcf4f1
01faf4fc01f60409
fffc0bfbfef5eef6
010301f5f7040305
f6fe06020efb0409
fe0905ff030efc00
fcfbf8fd05000502
fcfa04f407f8f9fe
fd0300f7ff0402fe
fffd03fbf6fd02fe
fbf9f901ee010303
f7fff4ed00ff0316
ff00f9f5ff0204fe
f8f4f50cfafb10fc
f6110523f918ecfc
fb0bfff615f50a08
eafdfbe8ff010f1c
f4111926160001e3
e0ef050d0d294115
fb03fbfdf9fafe23
0f1c17fd05242eec
f8e4f4fc0808f4ee
2d0b05f819fbfaf5
eef8ec13eaee00e7
0b0307eee304ef08
f12ce3e7f706f4ff
f20efedd002107f8
da0c15e8090eee15
18130209f816fa1d
f7f2fdffff0efdf4
fa05fcf00206fc02
020702fefb05fd00
fa0006fefafe030c
01fef7fdf7070604
fefd0c0003000ced
f501fdfe05010500
1cfafb00f70304fa
fc07e8f60bf70308
fe0b01f30808fb04
05fc00f7040c00fa
090405fcfdfbf3f5
ed05e601fcf600f4
04ffe8f2fa04ff0b
f7f5000afd17fcfc
02050502fa02f807
f909f3f20705e6ea
ef0f00fc000a00f4
d2ecf101f005f4fd
f60402fcf0f1ee06
e6e4ebda24fef1ff
f4fd0cf3fceae4fc
01fc01f6f90f0300
15f90600f7fafbf0
f313f00cf2f903e7
05eef50bf308f3fc
09e4fe100b15ebf6
0801fefbe9fd02e0
e0000100eb090509
0bf9ecece214f9e1
06160be7e3f60ceb
04fc07edf1fcf4fa
03f902020206010b
f601ff0205fc0214
16fce9f50d0500fb
f7fc01040d040304
01ff0bfc08130af9
f701f4fffa040408
f6f9fe0608fff9f1
0405fd09f7020505
07000511fcfb00fb
0cf8fb060cfdfe16
ff020405f80c040a
fd0afe01ddfd01ef
01020b030d0a01f9
f4fafb0a0100070e
02fc080d0715feff
f706fd0905fef902
0bfffbf90800dafe
d3fb070dfe121cfd
e813011e0ffff5e1
fcee08fdfb09f9fe
0cfee304f6e904f5
f30503f4f50cff12
ffff0202d8e8f51a
f3fbee181c05f612
17fffb14e3d4e603
1afef0e70503fbf5
f9fe111fece30ff7
01e816f0dcfce407
eb1bfff7f407fbdb
0df7ec0be30c02f9
03fe0ae1f41ff704
fd00f527f903ef03
effffcef1eebfe05
e702e83ffded02f4
f1f2dffa00e9ebf9
01ebe7e6faebfa02
0c0c01fdfefefff3
08f7f3e90201fc12
f8fd09f0fff8fdfa
fddffafd0af0faee
f1ee03f3fff4041d
17ed0dfb0ce7fd0f
010508062efbefef
f20bf7e2ee09ea02
0b0617f3f61507f8
f406def6fbedfdfc
ede4ece51b02faff
fc01fff7fe0200ff
0914e920fae60711
e7dc1426fd0b050f
f1e208ef20d0e80a
0eeffa0ffc360e02
1a04eb0c12ed031b
df0fe7f5f3faec00
f10c10e30a11f40a
03f80ddd05f6061a
e9e2fb2ceee7013f
28e5f6d9140b361a
11f7450d082e1806
e9ffdd2dd50907fa
0af3def7f4150407
213ae106ff070b12
f2e11300fce2f503
39050502e9ebfb00
fef5fcd904ee08fe
0505f4f5f804f807
f1f613fe05eefeea
05131aed100e0df2
0af209f6ec0fff06
f00028531cfe09fa
2c06eff9fbeaf9e9
0f0ceb0ed8020735
f0dced0ce909fdf9
14ec1cb32208e345
e4010b00cffcf833
13020df12dfbca07
f81348fa0af535f2
f314fe0c7cecf81a
0706070dfd17ffe9
e6ebfcfd12f85aff
fffdfff50c12ff05
f3faeaff0800fb12
edfceff211f303fc
fb06fef512140f0a
f8f30d070a060318
09ec06fa07f90ae9
fd03ff05fbf7fb00
07fcf9f800f7fe13
010fed04f20e1c00
100000fffcfaf8f1
f6fd00f91001040d
ef0cef00f9fb0503
06000005230b0ee5
11fdfd1212010dff
0302000f140a0510
0503020efcfaf51d
00fdf0fb06faf9fe
0bec0f4cfffcfceb
06f006231ce6fef5
010f2420fe04fcf7
fceef6fee8f80ff3
06e817f6f2f50f1f
f8fd0713ee1104ee
fdfe03effbfefa05
1ce9f906fdf9f3ff
08f2f7f3fc06fcfe
faf9ff0e0ef4f809
10e700faf4fe09e3
f30201fefdf5f8f7
12e7fbebf3ddeefb
f5ec1604e515f60b
03faf5042001f8f8
0afbfdef0d151200
f426fbf803130d12
02fafdec03e90119
ef0816e8fdfceefa
08edf01fe5fdf8ea
190ae3fafa0c2bfe
f8070305f605080b
e8f2f0fcf22601ed
ee20db00ebf8fff3
f9f5f806fafffbf0
ee0008ec24effd03
0ce9f3faecfd040b
f7ec04e713000301
0aff1207f9fbfb01
f4fd06efe9f609e8
fa03060700fdf9db
01fafffb06f5ff05
fa03030400fffbfa
0806fcfc08fb0004
fdfcfe0507050000
09fcfa04ffff01fb
08feff0afdff05ff
03070004fafcfdfa
090802f70000fc04
02f6fefd00f10301
fefd1b03fbfeff04
08fbfe0a00050401
fffc0900f7f9fbfa
fe020704fff9f0f8
ff03faff04fd00fe
fd0705050006f900
fb060108fb0105fa
f4ff03feff0101f6
f409fdf4fd070706
f5fefd09f9f6fae8
1700fbfcdef8f4f0
07fb09fdfc0004fd
0402fb02fb05eafd
06000603030002f7
07f403ef0305feea
0000fe040403f0fe
ef01fa03fa01fcef
f4f5f4f500fff600
f900f90104fcfd00
02fdf808f6f4f8fa
faee0af8f9fc00f8
0005fd0cf305fdfa
01fbfcfafcf5f50b
e5ec1a0d051304fe
e7fffd080306f81a
09f5010e08f90403
fa0105030f100800
0304f8fff2efed14
12f5f4fffc081021
fdfc041afc0e0100
f30bfc10ddf403dd
fa0a060bfbe900f8
0d090112f9fbfb1e
000101fd03040d0e
f1f3150b02fefc16
e401f8022d05eff0
fcfe07032bf416f7
f8f304fffe03fe12
f8fcee13fd02f0e7
eaf9f7fdf3161208
070dfafa0bfbf8f1
0eeeee29fc04fc14
0109fe18110df903
01f7f601ec0b07fe
f5eb0f22f309fb18
f309070c3207fbfd
f3fb070eee02fe10
0c0bfa02fcfa060e
f508160b04fa0808
0e08f7010314e6ea
fe0afdf1f4faf5f5
041bf7041004fdfb
0d0801f60901faeb
fcf1fbfdf707ee19
fbfff60608f10afd
f7f1e6fffe1ff405
0108fd1001fff2eb
ec10eae517f30ff6
ece8f1060af3290d
02f8fff2f10d05fb
05f916f2f50e200f
fd0305fbf214ff08
0de706ddf0f1f526
fffbf2e70c010c00
eef000f60efa080b
ff0cf5100d17eff7
0c00fd05e4fa1200
05f8f9eacff71510
03f4e4ecf72d0801
e3e2f1f90a06e6ff
f2ea0307e9fd04e9
fa0701f90501f9f9
f8fe08f801fcfef2
fcf5fc08ef01fdf7
07fb0202f9fbfff3
fa02f6fdfafefcf5
05fdf9f8fcf9f703
fdfefcf70cfd05fc
000402f6f3fc06fc
00fdedfcfb0b0007
fbfe05f40002ff03
02fbfcfd06fbfd00
0b0f03000200fd01
fbf601f7f70206fe
04fbf100ff0d06fd
fa00ff01f8020802
03fdfcfcfffc06fb
fffbfef102020b04
fffafbf403ff0500
00fbf8f10bfffe0b
00fa04f704080208
fb00fef90705fdf4
0f08fdfdf8fd010d
fc07fd16040afffa
fafc0211f6fe0207
07fcfe01f6130900
071703fbfa030502
07f7fb040401030d
ff0807fffafe0208
fa06fb05fa0d0b04
04fc00fbf311f2f8
040406fffafafdff
0108fdfef9fff9f2
031a04f2fbeffeed
0717fc08fe0beafc
06030a04eef30af9
0dfff9f1faf8fcff
1702dff1e1fdf0f6
e423f0f20403faf0
1002feeaf208ff02
02fe16030907fef6
03ea08f4190ad8f7
fc0407df0ff607f4
080fefea08011008
f2fb0706fd020b0c
edfaf9fcdff9f6ff
f7ffea02f709ed12
141104111bee0105
030aff20000322fb
0501e90e08fcfeef
fe1213f0020deb10
100201d6010705e9
e9f4ecfaedf9f3f1
00f802efecf203f0
e1d606f601f3f501
0efb04f8e5fe01f3
06eb01f6e7fff915
fb01f5fd02def0ef
e7f0f4ecf70d02fe
eef9f903f3f9f704
fef5f7010ffd0ef8
f001fd00fbe6f4fa
0a01fdfd02060c00
fef2f3ecf1f4fbea
f90102faf9f7ee03
f9fffef9f310f807
e71ae1ff0cf3fbfc
f0fe0321f90ef7f2
e6fcef0c1517fd17
0dff0cf7ec02fc10
fe0417fb09f8090e
e901ee102bf600ea
0f06fc01fafdf205
0115f9070405090a
11f71304080ef1f9
06f002111407fdea
1c0810061f000211
ec030f1703021ff8
0cfa17050906f9f1
fdfa090af103efec
f0faf6120701f1ff
180df4fbfc0108e6
f9f9f7ebfcf7ff04
f7020908f6fcfbf3
0000fbf6f1f5f6eb
fc05f80600fafdf7
f700f70102f9ecfb
0b0109fdfbfd02fa
05fa070afa04f9ec
fe030309f9fbebfe
fafcfb01fff9fff0
f40504f7fb0feef8
f904030210000cf8
f2f9fc0dfbf303fe
fef20501ef00fb00
f905f0010cfef3e9
fdf0fef2fdfd0402
08f106fd08f900e7
0c00fcfc060cf31a
f4ff0cf6e8fcf4f8
f70210eaf606f9f5
0107080f03fc08f4
fd010e0601fef3fe
ff03feedecf50103
ff0001f803fc01fb
fdf00000fef705fd
f21907f9fafc02f9
f6f80006ebfaf9fb
f90c07fdfdff0bf8
f4f8fe12ff05fff6
03f1eff80efaf708
0800f11bfb01f5f8
f503f303fdf9fbf4
f9f3fdfb09ef0304
1a0a06f0ff05f8fe
ebd809fd01f7fe06
f7faf8ff0d12f8ff
f2f92c01112a1615
0ef8f507f7f51016
fa00f8fefa0a08f3
17fdfff20df6fc19
16f9f200f5f23303
00f703fd0000f303
fff8fd0e0501fd0a
fc0af9f40603f40d
e7fa02fdf904fcf9
fc0904f908fe2c08
15fb050add22f6f6
f0faf60c0dfff40c
f7f9f8030afff608
ee0efe0408f90408
15f8f1ff0f09f908
f503f6f60206fff4
f3f7fefe14030807
0102fa01ff0d060d
f40509ec05fefd04
060ff8020a130009
fe13fa10f3f8f604
0ffeed0804010304
fe060a0107080116
eefcf90cfd0000e5
fffa0b1e13110106
f307fbf702100105
f4f80004f2f8f9f5
fcff0dfffa03000c
e8f509000603fd0c
fb06fbfeff030007
07f7f3fb0cf90605
f80300ff07fbfe0a
040314feff0807f1
010607fefe040802
0000f90cfe0b0300
08f40303fdfe02fe
030a0305fef805fc
0f01fa0bff02000c
0f01fc0317020ffa
0bf60802f600f8fc
04010a030102fcfd
ff06f903fefd0204
0006fc10f807ff07
fcfcfc0203000003
0a0003fb0004fffb
ee08f408080bff07
ed06f4f7120d0402
fcf9080c19fafb11
e507060501080ded
0e080bf2fbfb0f04
ed03050401f50100
fcfef7ea04fcfc00
10fdfef004f70d05
01fc0211fdfb02f7
01010206f5fbfe01
0bf80cf1f7fd0a01
f101fbfcf20b1707
0501effe01fe10ff
01f908feef05fb06
fe06110e07f8f3f8
100a0afcf601fcf6
09e10cfa030ff9f3
e60e0e00f7f7f0f3
0700ee0ceef4fffb
080509f9f8fc0f06
faff07fcfdf9f5ff
05fff9f2eeff06fa
ea0cfe091d020109
ef1e020906f1f4f4
f9fbfd2901fbf5d8
04faeff91a02f6f9
ff0c02fafc0406f5
f3fefaddecf30609
fff20000e90518f9
01f7f5e408f7faee
04f005f102070509
f4de08eb0ae608f5
0706ea0503e918ed
11d9fd13efe9fcf7
f8fcf7ec031603fb
f20eef0af1e8eedd
f33101ee01fd0a15
faf3edda0ffd0dfb
030f03f91303ffdf
fbefe8fe04f6f420
000304f2fffb03fa
ecf8e3f30df61de8
17101cfbd7fff3f5
fbfee013e9df13f9
1ffcf7f0f412ea18
dd01e207dd28030a
fb021714ecf0d3e0
e20ff723050b0f07
ec00ee1af90e11f4
0bf0e50207f3fbe7
0ff201080b140f07
f30418fe120cf50b
17f403f2fafafa0d
fe110d0b1a00f307
03eb0512eb00f125
fc3019fa0402fcfb
01f80514f7ec1c0c
05001612f2f2f3fe
f40df7ffec0af8f6
0eee21050e13160e
00effff6d5062aec
ede6faf0edf2ff15
05f4e7f804f8f7ef
f3f0fef7fd08f406
fafcfdffff0703fa
0503fd020601fe11
0403070007fb060b
f600fc01090701fc
03f80409fd040903
ff01020c01fefd01
fd07fa12f7fe0211
f8020505fafd09fa
0e07ff0901faf608
090002fd08fc07f6
04f802fefbfdf501
04fc0005fb0002fa
05fe030a03ff02fb
090100fcf209feee
000100ff05fff801
05fde61001ecea1b
fa1101160b03f90e
0e03150fff0209f0
fcfe01f9f706f30b
10091809fd140628
050001eaf8fa06f6
0204f906280af712
051401ef1af91006
0fee02faed02f60a
23050af6f0f60214
f7f703fcfdfe1310
0b05ebffe002fcfc
0d0023120a03fbfc
0f030ff6f5fff0fe
f3ff00ff001af91a
fb17eafd080cff07
fb01fb09fe0b14ee
11eff7f3ff050306
f7f31102e60006f5
fe011002effdfdf7
fcf7fc01efffeffa
00fdfae7f5fbf00a
02fdfef9fd050301
00f9ff02f2fb0300
08f9effefe05fef6
f5fe06e7ff000706
f906fe03f2f1fb02
f802fafe05070ffa
f2f805fb02f0fbf3
fd04020afc06ecec
0a02f4faf9050c07
f90807f605fc07f4
0206fe0603fd0204
0204fa01fe0000f8
fefffdf709020206
fd02000504040709
f904fffd0402fdfc
04fe07fbfe030906
0501ff0602fffc04
ff0003fbfe010106
020200fa01fffb05
fa02fafeff0407fe
04010704fffd00f6
fcfd03020900fcff
f804000202010401
ff0409fdfffafa04
f70704fbfbf5fcfb
ff0001fefd000301
0e0a08f4fa0809f0
ebff0908fbef0000
ed0f1b0effefedec
ee0ceaf0f8fefef6
08f90312f202fdf3
0d091901f6fe00f3
fb02ee04eff5fd10
090b0adbe5f8fa04
0403dbf8f7f11503
f601f7e30efaf1ff
1107dcfe05fe1607
0202ef03e706f9f6
ecfbfcfaf50c0300
f7f2ee1508f605f3
f2f0ef08fb07f3f0
ed0116f7eeff0c04
f2fb05fdfcf8fe0e
f812f306fafb0404
f7f009170df7fef7
000723010202f947
020ff507020b01f3
1a250211f6030a1a
f707f10b29fc0310
0015ee0c020c000e
fe07f6ff1705f801
e60a0209ff060c20
1a0f06190a0c0dfb
0d070106f803f2fd
f60815130b031a0b
16fe0df8f7f5f5fd
0610f8f5fbf4fdf3
f3fe090dff0603f3
05faf101fd070e01
0603f60a02f70706
fcf2fb000dffff17
03f903090e0d03fc
0efe08fbf501f9f7
0105f7fcfbfe06f8
f5000b02070bff0d
11e60dfa0008fa01
0f07f30408f506f9
0107fd14fcfe0b0c
f801ff0000f70cea
fb040ef9e5fcfff2
0ef10602f8fdf9f5
f10a02f8020bf407
f8f002e5fb02fb04
ee010c00f9020cee
ec00fae800050808
fdf3f5f701f3fbfa
02fa040007f906f6
ff09f4f9fbfef919
f5faf8f9ef01f8ee
0e0a0af4fbf4fd13
04fd00040ffff90b
0c06f1f6f2fe011d
ff18fdf312f20104
fd04f21202f5edf1
12f3fffe0b011411
1403f308fe04e801
f70112071dfffbff
f20a0804ea110df3
fe0ff9effc03ea00
fbf6f801fdfc0f15
00f6f90101f1ff01
f6ef08fa0101fafd
0f0bf601fbf502ff
fafef4fbf907faf5
00f5f8f7f5fe05f1
fcfefe01f7f8f6fa
f800ff0f06fff8fe
13ed0316fc03fdf1
fff9f0f9fcfefdfd
fe00fdf7fe08fc0e
0600fb030100fa04
0b0712f90cfefcf9
0104f0fbfa02fbfe
03fa0003effffafe
fd000900edf901fd
f408fff5fd02f3f6
f30618f6fbf802e4
f1f40307fcf8fe0b
dff8fff0f2ed0308
0312f7e5f1fbedea
f8f8eef8ee0109ff
e6f8e90c0ef70414
f2fb11fee40802fc
f1e906f0e4f1fafa
01f703eef511f9ee
fdfc0108fbf60cf4
fbf8f7fcfdf6fafe
ea0d0d08ebff0efe
f0ee08d401fffafe
f0f207f9f4fd10ec
fbed0af0fbcf23f3
fcf902e404f6fdfb
0de9090ffefff9fe
1ae608f201f9f803
ec04f5f7f5e6f8ec
090809fbe60404f0
17f317e6faedf901
04f8120bf301eb03
f8fefa06f7030afc
f7ef03f618ff00db
04ed03fd08fb03fe
ff0e0005041cfef2
fbf6fe0ae8f7f3f6
f919fdf3160b1dfc
fdf0f6fcd8e6142f
f4ef1a0b0205fcf9
dbf40df909ef02f2
f6050df4fc00041a
f7eef1f91df3ed01
ec17ec2b0716030c
fef8f0010af80c00
04eaf3000a020105
0002fcfbfbeaf50c
1a0207e306ed0a09
0809eaf90ef6ed04
f2fa0cdb1efef7d7
06fafaf5eadf0006
170c0d01ff090610
f1f91deb0ae7fe18
270005fdf8f4ebef
0006ecff03ea1603
d7e4e0f0e4f6f6fc
f1fbef07170d042c
ddfaf9f8f40411fc
18faf91105fffef4
fbf5fafb040df502
000309fb04fbfa07
e5eefef7f2fc03fc
ecf405ffeff2f20f
f4ecf9fd060fe8f8
06ed0400fcee02e1
fdf9fdf30bf905f5
f700fdf90407fefd
fbf3010bfbf7e507
fc0bfcfaebfef409
0509f2f602fb02ff
f00814f8fbfffdfc
0701f8f7f10a0504
f5070c0a0ff7e31f
f3edfcf803ff04ff
2018060d0b02edeb
fcec07070007f8ea
fc0d060205fd03f1
0f05ec01e6f1f5f3
f8f9050301faf905
fafcf2dafffaf3f7
fdfef518f80906fa
fef4fff122ff07ee
0808fa0dfb03ecfa
07f1fffdfcedfa00
f4f7020505fff9f5
f7fe13fdf2000509
0bf8f5e6f3f4fefc
f5f1030b09fefc03
ef0f0601f6fd25f7
1101fbf9f806eff6
f5effdee0109f202
01060e0700000703
fef4fa0708f603fb
fcfdf8001602f90e
0d0419f8fe14f5f8
14fc071efef90ef5
01fffc07fb06fc02
0bfdfe110e050618
01f80df3fcf505fa
0012030805fa010d
fc020008030804f9
f3f001fffbfff6ef
07010906f80103f9
0a16070804eb08fe
02f10117000002f5
f805fa0202f6f300
0cfb0df20702010a
fe130cfb0101120e
f7f705f209f9fefe
f4f906070f0b05fe
1ffdf8fe051609fe
03100b04f8020bf9
0305040d0910f6f6
10f7f500ff0503f4
0deff9fbf2f9f9fe
fc05faff02f7ff17
f705ffff19f60c02
0f00fdf60802f6f7
f703191100fa0af9
fbfbfa0508fbef06
f3f002ff02fa0413
faf5f812020106f0
06fffff608e404ff
d72900edfc08f5ca
d5f9f8f5040a1aed
03f0ff0ce12df7e8
08d4f2fde9f0f9fa
e3fbe3f8f651fb1c
dbf70df0ef04f602
06d80ac410fdfde3
0bfdf7020700e7f0
eb08edeeeefaeff0
eff805ea03fbfef3
f9f8e70ef1030de9
02f6070cf1f4e7f6
f003eaf5faf1f613
f4fdf7f0f4e50af8
0ce700f0f3f21017
09f5fe0602f80402
0506070903fffa03
050105fd03070105
fc000df802060000
0303f6fdfe04f90b
faf4f6ff05ff0008
f9ff0009f901fbfd
000dfd07f60604fd
fef6fdfe030d00fd
fd0400fffffdff01
fafe040000fe0406
09090400faff0104
0004ff01060601fe
05fe0104f5f10300
06fc0b0cf705fffd
ff01fefcfc02ff02
0ffc0904fefceb01
13fbf721feff0308
05f913f908040507
020dfdfe07fbfa06
0d0a0efaf115f8fc
0d03190216000407
0b030401f6f9fe03
06020201160801f4
0cfa03030c0f010c
051800f3fdfdf310
01faf20710f808f2
04fe09f902040cf4
f312f9fdea04f5f9
2bf5f40609020eff
f9f5030af407fe04
fcf51109f8fe26ef
f7fa01ef04fff409
f60af7060afd0def
1302f1e918fe10fd
0605fdfaf804fafa
010010fbf3f8fdf5
ffee1cfa0a011008
f7fd071dfe00ec01
0fe7f4eeee08021f
110af703e7eff8f8
1b0ffef808f810f5
fe18ff1101fe110b
0cfbee0c10fcf80b
130106faff00050b
0603ffedfc001100
f9fd22020be817f9
f0f5fa0bf00df9f4
10fef6060d091f0b
fffa0d05fe06fcfe
f60eede91bfaf500
feeffefef408fe01
00f40e04f0000df8
0801f7d5fc0903eb
fbf7fe0d16f6fdfb
18fb04fa0cf8fefc
f700f3f3f80502fb
1cf7f11312f2fc03
030207f3040116f8
1712fef2f1fc0900
e6010001f2fff9fa
f005f4291708fa18
0df80308f60af811
ee0cff07f6f10c01
ebe805f5fc09fcf5
0908fe080902f315
0ceee6fe12fbfdfe
fb0805effcfa0510
0efb09000111f0f1
0813070701f3ff0d
ebf3fc1e0bfe0401
0107f5f8e10006fe
17faf4ecf80f1cfb
040ff3110204fff9
fc000cfb0301f40f
0b0c0518dcfd0002
fffa20040d08ffff
ff040702f10704fe
010dfb06f7fc0bfb
00fb030605f30bed
f90b01fdfb04ff0b
0206010b04fa03ff
0b03f8fafc03fdf9
fbfbfcf602ff0511
02ff12010cfc09fd
fa0201fa05fd050a
fffffe1508000003
07f600ff08fa00fe
01000502fdff08f7
06fafe1106fafef6
fffeff0a020606f3
fefe01fe03fefeff
00fd00020100fe00
01fe12081403fb11
14fd0507fff60303
0203f7070402f9fe
e9fff1fff1fdef00
f10ef41900f4fb1c
112814f61a02f9f8
010bf7ecf2f7f837
f3eb0de8f208ed0a
242c03e7fcf8f8f3
0008f8ebfaf402f6
fdd50702f5fa040c
000807001224f8f1
1af2f22ef5f315e3
f2f80001f107e8fd
e006fe080cfc020e
f4fdfa0de7f504fc
f200ff10e806fe0b
f41afaf302e9fef4
0d04f1e0f7f713ee
e7fbf70e07fbf505
fb08fe1cfe0108f0
fbf7fd081a020302
00f517fd1301f51d
f1fcfc00fc05eff4
03061b160af6ff0c
fbfdf9fffa0bf20c
f90809f0150a0214
fdee04fe04f6edfd
0c0601f7fa010c01
f6fbfc17fafdfe05
0bf5f6e3fcfe1903
f50001fdff0802e9
05f908ee03f90100
1b03070e07f2120d
0e0a090e0700e407
ff061309fb100425
fe010efd1005fcff
fd06f7060601021c
f40b0cf405ff0206
fa0c0614fc1506fd
09ff06f1040f0f02
f5f70cff0e150cf9
0700f3fff209e8fc
031806f9fa100704
2103fd010afbfdfc
fcee00fe1cf90409
080d0bfef706eef8
f1f71af40606eb01
10f706020a07fdf4
fd11fe04fe0815fd
0cfaff090f060302
0f00040302fdfafb
fd030712000b020a
fef4fdf30ffdfc01
fc02fef90d0c0608
0006fc04fb0608f8
04031302fb060efe
fafcfe07fa09fffa
02feff01ee00fa06
02e509f8ffff0402
fe0afe0303f30800
fdfe040cfeff03ef
0109f8f600fdff00
f2fd010b060407ff
09fb02f3ff010af7
fffc03050005fb03
0209fd0c05fd0301
08ff080d02fce600
ed1002010405f907
0801fb0804eefbfc
fb0f1c0809fcf902
fd06fb1e00140b04
0209091605050920
0700f7060d020019
0cfff410f004fd15
07f6eb05f4f5fbf4
110c06fe08f4040b
121601060d0203fe
01effaf1f701f209
0f00fa0704ff06ff
0df300080602f6fe
f8f20a00eafefbf1
230b030406f501f9
0004f90801f9f712
e70f020bf512f1f4
f4dbe30508cf23e5
01ed0e0f1ceef52d
f71b063bfe1405ed
f1ff040101181500
f706ed02f907f10d
27111b05fd0511d2
dd1613f003080c29
18fd11ec25011201
ecfc0c18f7071003
2605113ce6100bf2
f7f025f307ea02f1
0b02f5f9fd0dfc07
e7e6271025f10509
0500010406f301fd
0002000000000001
00ff00ff0000ff01
020001ffff00ffff
000000000000fffe
0000ff00feff01ff
000103fe0000fe01
00ff000101000101
ffff0001010000ff
ffff01000101ff00
00ff01000000fffe
00ff0001ff000002
000000000000ff00
000001ff00000000
ff000100ff00ff00
0001ff0002000002
0000ffffffff0002
f6f313faff0204ed
e7faf4f9f4f5f103
1cfdfe10f9fbfbf8
f4030efeedfa02ec
effd04f60801f9fb
fffb0802fb00e715
fafff723f9f6fc08
01ec000f00fafe09
ee11041903fd0f08
faf202f7fb0602f6
03f5fa061cf4fe02
dff30ffa0405fdf1
13fd0cf30cf8f7f6
03f7fde7020af8fa
edf202ec1613f9f2
f5f2fe020bf2fb0b
e60bf9f8ecfa0ff3
00e7070514fc17fb
f90bfffb28072adc
edf8f9fdf8101104
1d0f01022101f5ed
eb02e21013e90211
f622071ae70efcf5
11eafd4bfa14fa09
0e33f6f3eeeffe0f
2302d00011fb0900
172601fbdf05fbf9
f60f2c02fbfff4fb
1709f2feeafdf1ec
0dea0af7fcff1119
ebfdfef0ea0103f8
060110f3e906050a
020705f80206f9fa
0508f60702040003
03f9ff01070407fd
fb030afb07020713
0502fdfb090b01f8
060af704fe000405
fbff010c0406f909
0c05f7f811fc0200
09f705fafe06f90d
0a02ff04fd040309
fc00090604ff09fd
fdf90c0cf8fb08fd
0403ff0afb01fdff
030f02fdfdfd0304
fc0402ff0805fafc
f6070604fcfcfaf7
11f3000d00ff0804
0e060321f9f20212
eff0f6fa0101fc1a
fef7160b00050111
010402f5f1fc0a0b
f7fd0811f80304ee
05fcf70208020014
021ef90017f8fb09
fff2f2faec000bff
fc100d0cfc03f902
00f80c0307051010
01fafdfae20203e3
f301ff04ee09f3f2
f70905fceff90d03
09fffc1efaee0cf9
011114fffe07f6f0
f11c14fdf506f305
f3090efa07fc1ef6
1b06fd030df701fc
0314f70801ecfef6
fdfd00fc01fd0812
fffe0bfef7f4f2f9
0904090c030ffaff
f8f7f410faf50b16
f509f410f41300fc
2ef0fb0303161005
1f05fe190207f70f
f1fef1faff0803f0
f7fc1009fa0aff0c
05fb13fc05feee02
01f7fb0e14f2fc1e
0b1000f8f8020418
0e09f9fd04ff0d0e
ff060a1400fae9f0
0afcecff12ff06f2
04f8fb030b1ef90b
f6fe0cfcecfc0b03
0efd0300fbf10c08
fffd00fdfd1bfffb
f7f8050af500fcf3
0816fd0af5f0e91e
22f90504f402f708
fff80303fd101dea
16edfa03defd06f9
0cfc060406150903
f6f9020c0aeafffb
f3f709feffebf407
06f6f61521fc0cea
06f60ff4fff10200
fd3c042702fe07ec
f1eae5f50f0520f3
fa09e8f10d130706
eb09fd13f003f0fa
e4050405f302010a
fa07f1051505f9fb
0e14200af60000df
fcfbeafb03f62908
070cf9f4f7edf3f2
f9040804140afdd1
04fef313fcfff2f4
02ecf900f90004fe
f8f20ffef9f70cfe
ffe8090502fdf916
04e2f5160ffef205
fe450a23ef0000fd
f710f51304f2f80d
07f4e3fefdf2f2f4
050df700f0ebf2f7
d8f2f208eef3f7f1
1e0bfce4fe00e406
fafaed10f2fefaff
fd001000e1f8f507
030df60dfb1cdd13
13e104f3f1ee04d6
0701ff09140312fb
d7020a14f004edef
f1ed28fb1803f6f8
f606fa1206faecfe
f8f2fa0c15f8fb07
01e8f9f1e9f910e9
06010320ff02fbfc
070e0e050200f100
26f6e50c12f3f703
09faf8060b060cf6
faf9fcedfaf7ff0e
ff0beef20f0401f6
fa000bfbfb0cfc05
fc0608f607f522ec
150efe0c020f0108
f6f6f0080af91a11
020b0ff4fd17fbfe
ffffeafe03020ffc
0a0c0905f7090eef
03ef09fe0611fd00
fb05171017e00411
0a02070011010d0b
eaf601f50f0b0308
fdecfc1505f60a01
1ceef7f61009ff04
050df7fc000bfcff
0afdf5fa05f8ebeb
0ffcf5e709f80009
000dfd0def05fdfd
f9fdf9fdff01fd03
00f6fcfbec0cfa07
1301f9e309100901
0218122e0007fbf5
02000af3ed0604ff
fc0023f703fbfff5
160c0aff0b0dfcf5
0eef060716faf910
f508fff600ff0801
f7f90600f0100603
fb00f7090300fa04
2901e7f101f4f406
000c04fc0e17190e
160810fceefa12f7
06f8fcf1fb021c17
ff0ff617eaf5fbef
0a0df00cf3fefe08
11f1090cfef808fe
0c0b051a10f7e905
eb060afc0609100e
24f905f4fc000c06
04fa100706fe1506
07fe031904faf809
fd02080df70aec0b
070afe13fc05f3fa
fb0406f71216e607
d9e4f2eefd2107f7
faf9f602edf3fc14
1109ed06ee03f2f6
f7f4eafd0df50303
fb09ed19e611ee13
edea07f0f50cf7ec
f9effa02ed01f5e6
fef7f413f7f609f6
f00ffedff3f4f8ea
f201dcf0ccf3f637
f4f40b0003fe0fec
f401f4ffefefd611
00fbfaf2fdf40ded
42fdfa05ffedf003
03fe04fe0bf9fa0d
fefd09fb03000403
ff0ff506fefd0402
04f7fb04fdf60508
02020a0403001104
f7fb07f4f8080604
f907ffeafc040701
f601040605f3fcf6
fcf10403f1fdff0a
ff0f05fbfcfef507
0205f60d00f80204
060d060ef9f9fc02
06f6f7fdfcfdff02
f5fd0b0bf80003fa
02f403fe0cfd01f9
06f004fdf2fafc06
02f90707fcfff8f9
e3ef05fd12100307
f807ee170116fdf4
fde8f1e010e40105
effef9f81b09fb11
060006fbf205f5f6
e6f634edf7f60a0b
f5fe0523ee0101fa
0df602efe00902f9
0717fd1e02ffe207
dff818e5faeefb17
f9ebfd06f3eaee06
1b17faf9eefbfd0f
f3061e0707ff1ef1
02f0fa0df8ff04e7
0bf601f8edf0f41c
f5f1040e000ef2f5
f10309f8fcf8fc00
fd03fbfafc0cf801
f40bfdfef10207ff
00fbf40afcf4fc11
f5060dfbf0fdfef8
fdff0cfafefbfef9
0202fef5020302f7
000302edfcfc02fb
02f9f5fc0011030a
f1f801ff05fffffc
fc02f404f507f612
f6fefc040c020303
ebff03fbf3f9fefb
00f8f7fbf603f8f8
fd0effff02f10be6
fafafbfa03fd03fc
0316f603faf9fafb
0feefff5fd0af9ea
040f0e0ce8fdf6e4
0df6f7fafb03fd10
ea07eefc090807ee
fd06f61007fbf018
f200f310f5f9fdf9
ecfafb0de806fdf5
f8e00805f70313fe
05e91bf5fef5fae1
f503ff0c000f0902
f7fd02faf309f905
fd0033f6f10cfe03
03f31503fe05f6f9
030eeafa0708eede
f7f2fc02fcfc0b01
ecdbfd031203f30c
1312f706fefc1cf2
f0f3edf811edf0e9
f2f816041f273a10
fe0f1c14030e10f3
2eecdcfff90d0fea
1efc1c13f3fa0201
f0f8f7f2020509b4
0c18fb0af6f5010c
f9f1fd17feeeeaf4
14fa2c091426fe16
02e62e11f7f706d4
050f09fffcf91df8
0e17d5130d0500fb
edf20f0ac3fef90c
f7f00ffe0d0aec09
ee0ce7f9f10bf005
fee6f2f3fcfcf306
e2091cfde801fffd
fc0cf4ffedfdeceb
fbfc03f703fa0108
f5fbecf6fcf9ebe2
02f906f7f0f50a07
f4ff0b010302feed
f106fc0ff0080509
edfb08fe0b16ffef
faf908f3f311f406
03fd07031707ef0c
f4f7f9fefafe1707
f802fd0a05fdfcf8
f0fdf5f10fe91ce9
f2000c0bf908f9fc
ee02f50a0bd811fc
1512f30702f8f0dd
0600f2f009170117
feeafffc0c1ef406
fa0af716f60102fc
f9e30fdffe070636
f917f5f0ee01fe08
01fef4f9120405fe
fcfb03090aecf113
09f6f0e5f0f3f4fa
050b061d04fb0d06
0ffa11fff5f919f6
000a0d1ef7ff10e6
1a2009fe090a1cee
190e01e8f30c180d
fc080bfaf702f915
ec01fc03100113fc
ff030b0203090106
e003efed04f303ec
fafeecf3fefb0005
0cfbe90eedf5f40d
ffee12f60cf6ed00
fdfdf30efbf407e0
03effada1600fa08
14ebf4e715f30f0b
eafcf5fbfa1aefd6
00e8fdf6f9f00204
dcf4fbf217f715fd
f5f903f6feeff611
0312e605ec05f3ff
e5f20809ed0100f1
fcf5fffef8fb030c
ddfc0007fdf1fe0e
e60fe80502fbfb00
00f3f0fa0c1701f6
fa00e5ef16f803fc
1afb1a02030afb0c
0eee050904fc07f9
f502fffc02edfcff
071f070cfc07f806
07dfee03fcf71802
02f6eb01ff120106
04f50905faff0df9
02fe0f05fefc00f3
0ef707ff010807ff
06fa06e8020305e8
0a000609f4040623
efff0a090503fdfa
e6edf50109f8f5fc
060cf5f8ff10070d
08fffbf30f01ffff
fffefefd0d030909
f3fb14fdf3061bff
0b0817f6fbf90ef0
01fcf90806fbfaf9
0006f716fdfd00f9
02f9f90cf6ecf40a
0406ee0c02010a09
f90407100bfffe0e
0cf60d12f901fdfb
ecf3ff080303f4fd
07021104fb000bfc
f902fc05fe1500f9
f7000604f9fff8ee
f3f40600010a0306
fe1403fafdfdfd17
0308fc0114fb0b04
ff0af9041709fc0e
fb010308feff01f7
fc12f6f402fc0502
ff0af70408f7ee0f
020710fb090005eb
ff01f6f5050ffbfe
06f810f60c0af80f
1002f902050afafd
13fc070bf60406f3
09f90d14060afef8
020314fa00020b03
fd010afb05f508f9
fffdfe0b0008fdf2
fbf4fc12fc00fb03
00fefc0a04fe06fa
0efc06fa08fffcfa
02ffec030414010b
fefcf700f805f2f3
fc000bf3fbf80303
010303f804fafdfe
f7f802f600f70103
f4ff12fc08090610
09fafd09fbff0309
fa0101f913f008fe
0ef4010cf300f905
ec05020518090504
12fc0bfe0503fe00
02f5fc00fa0ffc00
fbfffa050404050a
ece9fbe8030af1f1
1608f7fd050606fe
0513f805010bfc02
02ff02fb0909020e
0904e307070510f9
fafe0023faf60f08
010304fdfe0ffc13
f4fffc0027070423
080f2bfb1401fa03
081d0113f401feff
fc010d02f4fe1203
0f0af4f2e60600f6
f5f6fc0bfe0504fc
2604f60e0af7f5f8
08f9060ef5000905
0ef60b0908f6f2f6
fff8fc0706f70b0a
f0fe0109fef4fdfc
0203f60b08f9ff0f
030208f905fdfd08
18fe29f7f60905f0
f5f904fdfefafd00
fe050108f5fffbfe
09fb04fef4fa01f8
fbf40209f5000904
fffef9fe0bfa071c
f50003fa010105fc
f7050201e7fdf3fc
f5fd12fe0a050b00
f60e02fbf001fafe
fff402f609fd0002
1108fffd0101f5f3
dffc0603f0ef19ea
fcf0fdfb0405ff06
fcede901f229f4e6
f5f9e200f0e4fdff
02fc02faf50509db
03ee16ecfdfdf2d5
04031104f91b04fd
f61afe04e2fdfdef
0702f30fd214e3e8
e8effb16eb0d0606
e709faf20602e50d
e4fd17fa3beefc38
e9f7f8ff131202ed
e4d8f4f3d002eaee
f3f0feecd9cc09c2
0cfcf5f90bfcead9
f1020a03fff1f5fd
f61900fdfcf90c10
f701faf509e80a0a
faf4f5fe06040505
09faff100505f7f9
15fdfcf5fe010105
f2fdf024ecf3fbfb
03fbf9f9ed010501
14f5f305edf4fefd
fdfcfb0305fe02f0
0b02fbfd00fb00f0
1afe050cf201f200
fdfd031408060cfa
06091efffdfef0ea
f1070afce8feff09
14f2fd00f9fbec08
fb050202ff0004fd
06f906fd00fbfa05
0100010202fcfcfd
0503fd03fefefbfd
fefb03ff01fbfc03
04030603fefefb01
fefdfe0105020301
0101f904050000fd
fe04fe04fe04fdfe
06fdff04fdfffefb
fffe02fe04030006
0302fefe03010302
fefe0203fffcfafb
fa020404fd020200
ff00fc020a06fa06
fe01fcfefdfe0408
14fff209fbf0d9e4
0afee31e09ebe7fc
fe09f40a04fdf5fd
fcf515f8060103fc
0bf8fff8fa131f08
02e4120806f700f2
0af8fb0a02070407
faf206f314fdf6f3
17f3fef709ffe409
e8f6f305f401f9f6
eceb0c02f4f1fa19
100908e7e400f6e7
effcfbefe5f2fafb
090802ec010e05ff
1402f634f8f60de4
03ffec03fb0309fe
dbf4f4e0040d1006
ed1314fcfd01041e
1de7ef0507210410
f50310031af6fd4c
0dfef7f4ff1317f9
1cf6fe0d02f81d36
f20bf41df903f609
1afe03eae8fff7f1
110eff08f4f3f000
efffea1a0df0f2f6
fffbfa05091405fd
04f001f6060af716
faf7f7f9f308eee4
f8f415e904fde9f2
f93313fdfbf509e6
090a16041902f3fd
f20a0febfaf5f3f3
ecf506f6ff06fdf3
f30bf71505ec0cf2
faf007f012fff904
ef01e6fb05f5fdff
030d000f05f9f4f3
f202060a21fa0205
f3f0fa17e1f900e7
f026fb0f0112f6fd
10040603fbfefe13
1100f1f1fef5f917
e6f90e0bfd02f800
0309ed0df721ee03
f403eef5e9060002
ed01f9fe15eb03f9
fefdfcf4fef915fb
00f0060204f7ebf8
ee150e1204fa0cfb
fbf6f0f6000a0ff6
f5f405070efd0c05
11070be008ff0f0e
1a01fd0502081af5
0106ff0cf803fc0d
ec050a02f003f9f4
091cf5f1f004f4ff
fd11fb1503fa0902
03fc04021f040007
0808f9f0f90102f7
fd050409f4fcf9fa
f907fbf50af6f5f3
02f8ff09fde6fef1
fc11020b0afbfd08
0af30aec11fae9ef
dffd04f8ffec0414
ddfbee030df6f0f0
fc1508010c09f311
f0f0f8fee919fae2
140b070af1ea71ea
f8f4090dfa0cff0a
fdd8f607fe04fdf9
e809f815f0060b07
13fb17e4f6f90af3
f3fe05fcf201fef9
1d0df3f9e305f804
000b1907f80e13ef
11061c0a0af5ffeb
d800f5f4020e0103
0811041a0af8f906
d8f30008f5f7e8ff
e827ff0816fa0e14
05ed141b111b2bfc
fe1103e717de17f5
f904fafd0201e4f2
06fefa3ad8f41b0d
0710fc0bfd08f8e5
0bfd10ff080df90d
0918010af60105f3
e707f007ef12ea0b
0806fb340907fff0
f90a2bfe0cfdf5f7
0d09eaf703120fed
26fc03f23e0ced05
1219f824f212f40e
05e42a1efdf1eefd
050b0d04f1f51008
fbe600e6fd00f8f9
fbfae10ef5fcf8f5
f809fef9ebf3e9ff
f0fdfdf90be503fe
03fbf4e1f3f1e7f8
0d0004fff6faf8fe
faf70212e1f4fffe
f4f7f90ef4161afc
f2f3f816f405f7cf
0cf802f605fa01f0
d9170dfcf202f4f2
fffb03e8fdf604f9
f805002e030df501
0011f1dd1cf2f9e3
00f80ff9f902fd0a
f6fa00fa08ea01f2
ec031f13ffff02e7
04f6e605f8f4f5f6
0805f914f3f3f7fa
f2fbf9f8f504f6f1
ee07fc03fd04fbfc
f5fffcf0f5fffc03
ecf408eef1fe010d
fe0906090101f4f8
fcf4fb060a08fe16
ebf8fce90aeeff04
090307f800fff9ef
f001f0f0f600f9fb
f2eafb0aff0208f5
fff70206fafafe01
03fb0df6fbfcf506
1cf4f402fafbfef2
f5060df20204f4f4
f30105edfbf4fcf9
06fe11edf5f2fff4
f4fdf6000bfb03fc
f4f7160103f7effb
fefdfaf6fcf70103
02f70107040cfd0c
fe0d00fd0309fdfc
eceff4fc00ff0c09
0afe000303f50404
fff805fafb040000
f604fdfdf703f417
13f3e407def80600
0106050703fafbfd
0af4fff7f503ee23
3f0bfc02f9fa10fd
fb02ece201f8e204
1e040f29e3fdf2fc
07ecf2070af7fcfb
1509ee001126fd07
0927e4f001011af7
0cf9fe03ddf007f5
f900f8f704f316ef
01eaf0fc02ed0f22
0c05f700fb03f9e8
f2edfb0a01071118
04f60e1009fbf9f5
100ff211fa07fefc
100122f1eaf61fe1
f4fe09fd043cdaf7
ea00001df8022af0
f1f9f2f6090ff511
fd11f8f90afefbf1
28f9e70e0ced00f9
ff0231f7f80f0907
03faf805f5fa06f5
110df0fc08041217
08090a02fdf2030f
fbf2f81bebfd01ee
fc060a04f0f0f50f
020600ebf6fdfb04
fcf6181002000c0c
0dff1508e3080df1
f9fbfb1de50bff02
dc012cfbf30507f8
ffef09eef503fcf8
f609f0fff301f3f4
e9eeef0a21ffdf18
f10907fc0afa0bfb
0d0605f40c07f214
17ee00fd17f932f8
f716070b0301ff01
f8f9eb0001f8fdf6
0c1a0418fff102fd
05e304e91ffafa12
fe130d120df80ff8
23fee80afef9f413
ff08021700201001
00f2feff0cfd07f7
fa0208ea0805eef4
ff03e2fdf405ff01
fd03f603f5f2fdfe
0af60517f604ef0f
1919060bfef7fa0a
011beff90cfcf112
07fddfeb0cf4ee03
0dfbf00202fc07ff
0cfe12f60a050918
f2f7f802fb0cfc14
01fef916fcf6fe08
10fb050b0d16fb0d
fcff14f3ff01f700
fc02e9fd0905fe29
fffe040502eeeffd
f8fef60edb05feef
02f7071bfe00f7f6
f8f4e8021101fb02
dcf0151bfaf20afd
0114fb03f80416ed
fefe03fe0201fffe
040a0205fcfb0601
fc00070afefef9fb
04f8ff0208050203
fbff05fd03000403
1206030502faf802
fe06fd0c06fdfc09
fdfb00fe09fc0300
fb04040306040305
1d0502fd0102fe02
0e00100a01fd0503
fb03fd03f30401fd
04fe09fd060c01fd
05fe060200040400
ff0b01060708fc00
0501fdfafefb0300
f305fc01f703edf9
ecfbf5ee00f7f702
dff5eb040bf1ff02
000402ee110010fa
ed0705f7fff6f7f6
f4140400fcfbfd08
f9fcf3fbecf1faf6
0206f40aedf803f9
f127ededf8f8f3f3
ec04f3eaf8090b07
10f6f403f80004f7
fc04fa0724faf7ed
f7f801ec060a08f0
fbfcdd0bf82511fc
eafaf6f9f918141d
f8f60d08f706e9ff
060801fe07f5f2f0
fdeff500fd1604fa
e9e9f1eae7031914
02f90510f6f801f2
f5f4d007fbedf3fb
faf501fffcfff9fb
0c0607d8f61df6fe
1bf206f8edfa03e4
02f4f905e109f1fb
f6ebfff005ff00f5
f3fd17e504f8ff01
02fa020619fc0efa
effc150bf51403fd
eaeceeefdd0a10fa
fbf201eeeefe0006
10f205f1f90500f8
fbfefdfd01fffbf9
0808f6020102fa02
fff9effc04f20216
fc0302f60c0005f8
0602fa06fe0b1007
f9fcf7f200060409
110000020906fc04
fc0dfe03f201fc03
02f7f8fdf409f8f8
f0fb001507fc0200
f505fd020a06fef8
0a0005fdfbf803f6
f2fcfb0ff7fc03ff
f60113f60af9f5ef
f804f8edeaf20602
0c09030701fdf502
f30608fe0201fdff
0205fc1501fb02f8
0308020cf8f2010d
fe080f040d080305
f502ff0101fd0103
1000f80207fd0c03
0700fc0005040003
ff010301fc060505
08fffafdf600f90b
1302fd07fefefffc
03010909f6fd02fb
02f40a0305ff020c
fcfaff08f60e00fc
0afa0700fefbfffb
f812f90707fc04f5
f8fd00050bfef905
26f901ff03fc0b04
ec1004ee0505fe07
0bfcf2fb0bf7fb04
00fd070b0a010405
f60006f9fa080912
fd0a020301ff0a07
0c070403fff8f8fd
08fffbfa0101fb0a
070df0fcf7020cf2
fef70bff09f7fb02
feff021215fb0001
1a090701e4fffef7
f8080607f608f9fc
05fbfaff0dfd22fc
f9fd0df000e40e0b
02ff0307fffafeff
18120af5f9080403
1301ef0205fcf4f8
0408f4ef10fd0006
0303f80002060a14
07fd0e07fc080c06
0ef6e602f6ff11f7
03fbfb130d09f9fb
f001020a0611fb15
09f1f607feff0b15
08fefb0e000af8f1
e80d1b010bf906f7
02f70206ed00f815
050609fff0fefa02
0aef040b09fd06fc
0209fa0417fbeff4
ef180412fd050502
e9f1051208f3f810
f11903000eea10fc
04f3e8e90cf80ceb
1de210ef150f080f
f8fa071f13f900f8
09ef0bf4020110f9
edf7f60d14fafaff
03f4f3f3ee040ade
02ebfb07ebff1101
fdfa1410f014f105
fd0d0303e206fa0a
01f80904f6fa0524
050004fe0e14fff5
f4fd07ef0ef3f8fa
f201fa14fd06f803
f4f90609ee0c0b06
fe02fcfe02fbfe04
feff05fe000003ff
00020201fd0200fa
01fe020000fffdf9
0203fe0000fffd02
fa00070302fcfdfd
fdfe02fafdfe0003
fffbff000dfe0100
020100fa0200fc03
020402fb01010403
01fefffdff01fdfe
00fcfefc01020103
0201fcfefd00fc06
0303fcfe03010002
fdfdfe0400fc050a
01fefefe03010101
fff605fefe06f325
f311f813fff3fa0d
10fbeaed07ecf4fc
03fdf0f824171513
061305eefbff1ef1
e80505100a0d1224
f7fdfd12ee03fc07
ebf704120afd06fa
00faef02fafd2a0c
100cf5f0fc0c02f3
f10cf709060d0003
2707fd03e607f0f0
fff40d0505090b03
f621fd0509f3f700
0ae80705f6f7ff0f
0efcfc08f812f6f2
0107fb04f8f90cf6
faf0f3fb00f808fe
fd040eeefafc00f9
05ff00ffeefdf6ea
f8fff602f5fefefa
f6fc01fafffcf108
04ff02f4fcfffd02
ffe4fd19f7fefe02
fefdf801fe03f7f6
010cfcfa020906fc
020400fbfcfffb06
0404090012fef805
f8feeff6e705fbfb
f9fdfcf4f40402fc
fef803f70ce60101
04f904f204fefd01
0c09fcfd00fdfee8
f3fafcf9020f23fd
1520f8ee11fb1deb
faf70303fce7f7ec
f307e7f6f70bf6f4
1b0405f1f2f7fd22
03faf8f00903fae5
f8fe07f506040012
f5021411ff0f11f6
f800ef110ef5fdef
04f609f105fbfee8
0402dde608fafe08
f7f6d60007fa0ef2
25f6f5f0f4eb0ffa
fde1e80001e7e9e2
16f6effdfcfaf90f
ea040603fef5fffb
ee09e7fa07f6ea09
08f70112fe0710ec
01f80908050b041f
05f21a09f407100d
070a090cfcf8061c
f501fa0500f2f607
f311f813e9fcfb04
0af6f5f4eb031407
1a04fff301fef9f7
03f70409fcfb000a
19fa15f5f00204ed
f004040df30af302
0deb12effbeee6f4
fb170dfee9fbfefb
f501f0020e00ef0e
eb0d10f0150bec23
fdffff10f7f8ff01
2227eff12df70404
21fdfcf507ebfc04
0b0beefce61c04ff
0f08fdf60e06ff03
1c040811fbfdfc15
1bea080a06faf302
02eafd0f010feef8
6b00ece20a02271a
ebf61c12ffee080f
07f3e308effc0ced
0dfffdeae40bf6f5
fcf7f7e41012db0c
fbfff7101df5f934
1619f205f7f90704
fbfe06fcfffafb0b
e609010d02fe0a02
0a11ee0017f9f911
f6fefafc090afffd
09fbf5050efbf2f6
0107ff01021512fe
fe00fcfff5fffffc
fafef808080e0006
faf7fcfb0afa0a0f
05fd011005fc0906
0dedfa08feec02fe
050602fbec03ff02
fef706fc0708030c
fefd05f503faf912
fdfd070afafffbf6
fc04ff0800fcfafd
e2fdf4ff0df8f9f5
0b0a0e0801f601fd
12f6130b0efff202
04ee050d0af80909
f5fe00f505fef7fa
0c1700f3fe08fd06
fefb0b0d0b04fd07
030b03f20cfb04f8
0706f6faff141602
21ed0ef60011100b
f509160e05051006
20fffd0ef20af7f7
03f60dff030011fd
11fffdf1e6fbfa0a
010009f805100114
08060204fbfe11fa
ffec05ece0f90a09
0df5fef0000efef3
250031ef07fe0ef2
08f003fdfaec07f6
12f41605c12a0ff7
020cfffe0a050422
07f1fbe1fd020bf9
f6e6f102f300fefc
17210de4fb00f2f7
fb110eda04e8030a
f0fc0d1807f7eeef
f8f5ecf211060a0f
ff0cfffe05e9f8f6
06ec0be90a040d24
eff7fafbfc1ae5fb
f0040b03fbf114f9
d5091cf9fcfafd07
ef1a0d24fbf1faf9
eff704fc1df80b09
0200fc160d1a0708
e906fc1f01f6deeb
10090f0901091716
ddfdfd04040afc0c
fd04080ce802fbe2
f804090eeaf114f1
0c030324fefb100c
f508fb19fd000118
fb0bf2fad507f304
f2f51d13291120fa
f1f9fafc04edffed
27f50bdb15fff914
1f05f10404f801f9
18f202030803210d
01f621d9fbfdfb05
09fbecf2f8fb0916
eefaf1e4f702fe0d
e910fe1cf6fff9f8
f3240ff30f0604e3
00f3ff0bfb0cf21a
f6fd11f9fe03ffea
1ef8ec06f2020f0d
0a14fbf703fafef4
00fcfd05f202fff8
000808eb13fe17f3
f9fc01ef00f4f8fc
fbfffcf60c000320
2402f0f60c010108
0a0305f7f7f8f401
01edf713ef04f706
f916f2220dfb14e7
ebfc171610eaf018
0ef7f4fc0a0e06e6
d6eb0ff006d600e8
dfdbf204f6072818
f8ff3afbfbf5fc22
021cfaf34b091209
eb080eebe6030403
fdf704ea10073038
e3f044f7e8f7d5f2
12f9f80510ee0306
12012c09fbef32f5
ddf5ff1308fc02fe
f9f30eeceb03f655
0d12fcf3f5fbe713
0307fafbf7050502
ff0bfc0700f7e9d7
f30514ed0b1011f0
08fff203f4fbf5f5
fcf9f3f8f8f6f507
00f403000ef1ea01
f5fcfe02fe1302ff
f6e4030cdf0302ef
fffefef70bff01f6
0513eb0e0c04f605
ebfdf6f7ef0bed0a
fbfaf9130f01f0f9
f1ffe8fa09060403
03f81cfee400fff8
16fb0006f5ebfcf9
17070af9f5fbf5f2
f7fc040ffee61813
03f8f3280306fa0b
050d24e608f1f800
0601f7f4e4e2ece3
f8fced01fff2e6f9
faf113ee0202ecec
f9f709e5ed010617
faf407fb08fdf509
f4ef0c01f8fa0104
ddf7012bf2021508
e20300f9fa110af8
d3f804fbf5fefc01
05fa0beb08e6f2f5
04f90805e5f6fb0f
fefa0415fa040001
0303eedff6faf304
04fb12f61206fb0c
f502f001fb05fe06
09f7e9ef050ae326
fefc0410030f01f6
06d7061cf0fff5ff
f704e301f5350309
f506faf90bf505ff
fcd401070c06f61e
0712fefcf8f906f6
ff050e0c02f4f1ff
fe0f0a0ff8fd230c
17f0ec10f5fffa09
ed000c08050bf602
0b0de2dfe3fb02fa
10feef00eef6000e
15eb1b0403f7fbf6
0d05ff0efdfb0af2
fc1df8fdfb01f4f1
fbf6f717ef05fb00
0cf7090101f209f5
eb04f7fafffc10f6
f9fe03f700f4fcec
00fef3f7f9f603f6
f8030607ff06fe0e
f6f10ff3000dfef5
ef040407f905f2fa
ee05fb02f806f9f5
060402f40b01fff3
ed0506f2f7f704f8
ffe5fbfe05fdfa05
e9f4f2fd11f40400
f7f5f508fbfef800
f9fbf509fefa0906
060f090c0bf7fb09
fbfcf0f50808fc1b
04fb02050c030bff
0dfd050313050200
f302f6f7fc020b06
fffef71106fdfefe
040300ebfafdf60c
f80af502f0fd0501
05fdfc1e05f70001
0ffe0007fd030bfa
0bfdf5faeb0003f0
0700080cfffdfffb
fefaeff603f6fefc
170801fcf4f3f008
fb17100df2fb0305
fc0b0002000306fa
00fd02fe01050202
fdfc0001f8fdfff4
0104fc02fc00fe02
01fbfc00fa0003f9
03010501fcf7f8f8
f900fdf9fc030003
00ff00fe02fbff00
fbfe00fdfe02fcfb
fb060901fcfbfcfc
faff06000903fffa
0000020502fffc09
03fdf7f90503fd00
ff0300fffdfb02fc
f8010303030202fd
fafff9040000ff02
16041af2030df308
f804f70c020a03f1
0904f3050c07faf5
030eeefc0f04fc07
fbfcec050e080e0c
0f0c0a04feff0607
fffe0218ebfcfbfd
04fcfdfb1907fb03
08fc10fdec02090a
1803f209fd0102ed
0104fa060e0e0bf8
16ed0efafff9f3f3
100e02070afe0905
040af50b02f800eb
f903f5f7fe12feff
faff1005fa010ff9
03f90df701fff919
fb0ef6140700f212
0cfbf10609f3fbf5
faf9fd1704fe0708
0907faff1309071f
ef04fcff05000206
0403fe0dfaf902ff
0004f80bff0efdf9
fe01fdf2f903fdfb
fdf80307f502fffb
1804f915f6f00002
05fa12efdc010607
16020c1c050d0003
f3000c0705ff05fe
04f708fe070af7fd
eeff1008040408f1
0502030204010104
0203fe01fb05fa01
fd00060502fb0401
0002fe0ffdfd0403
03fcfe000903fe03
0604fef20306fb07
07fc01060001000c
fcfbfe0800fcfb09
fd02fd0b0400f701
0b050504fdfe0502
0504030501030401
ff010201ffff05fd
fffb0503fe05fafa
ff040c0207060102
00fc0a0304fcfb06
fcf907ffff0603fd
f903f7f2021f0201
eae3f6edf6f6f7fd
0eebef05f2f3f303
0cf1f4e3f7e001fa
0102050807f80306
f3ee0001fc040207
f90803e6000803fc
f8faf602ebf801f1
0f0af457e5edebf1
090fe809030af4f2
dc050cf725040801
ce07f5f3fb04f2ea
f805fff13af5e802
fffb05f4130400fd
e8e4eaed02ee04eb
02fdfaef13020119
f2f8f7030105fafe
010afd0e06fefaf8
04f6edfd04f6fb04
05fe00f40407030a
fcfe090505f80904
fcff0d0501ff03ef
0300fd0e06fbfb02
0df5fcfe01fb00f7
fbf506fd00080203
02fdf6fffafa0313
02071304f7fdfe05
0b01f30305ff05f9
f70409060afffefb
fe060b1301fa0706
0f00030d0b0e0002
0102fc0602000701
02fd06f5f9fcfd02
f60afe0cfffdfe09
fe05f50cfb06feff
f6fa00091005040d
0102f906f7fe04f4
0cf9051001020a05
010402070300f708
ff0409f1fdfeff0a
faef03faff010704
f609fc0dfef20801
0f000202ff0701fd
10fefefef2fd01fe
0402fdfffbfdfdf8
060001ff1403f3fa
04060004ffee0100
fafd02fb05ff01f7
22e1ee121818f5df
120c65080e13f2f8
1ee9d00b150507f2
fdf2023209eff0f3
13e6e5f30c35f1dc
0a0edaddfdf8e3f3
0f01062de7030af7
f9f2f9e12b02fb05
0af7e9090303f206
2bed06ee0502fa0d
e3fa4afb030ef9ec
250ef002fd0905f4
0503f4ee210017f8
0b1bfd120211f929
160a1ae7e8282617
f707f20821e614fa
f60f09f805fcfc14
0e070600020a04ec
0417f505fcebffff
070dfe0efc0bfe0e
f902e2f7fa0ce9e3
130ae4d7f20a0906
ecfdf5fa12fd04f8
f9f5fcf6050504ed
06f20d08020cf203
05f904f7faffff04
f50a1ef9fe0e1b01
00f80508000f0607
0a00f606140902f4
001ef905110bec00
0b0cfc05f6110207
1107eb01fcf70ff0
08fafffe05fa010e
0909180000fffbf4
ff0917fc0ef9fe03
fc0301070b0b0d01
08f8fc03f80508ff
fcef0af7f6fd0df7
ff07ff10fa02f6fa
f503f5f9100405fb
050500f3fafa1513
070bfb0cfdf40e05
0cfc0f0d0702fe0c
0bf6fafbee05fbf4
fc08fc0c09fc10fb
2508f9fc14040005
12fd0af9f8f3fbf8
0502fe07fe060606
fd04fcf9f5feff00
12eff003fc0811fb
fcfaff03f10b02ec
f5010503f6fbfbf9
f7fe00070fff02fb
fbfaf614f9f1ecf0
05fffff400fcfdfc
f9ed07fef0000503
00eb03fa0801e4f6
fafe0de6f60c01fb
f0fc0502edfbfa04
fb0408fa07f4100f
fefcf7f4f4f8f8ff
01faf8fd07feedfd
0906f105f8f6f7f8
0407fffcfd0004fc
1ff2f31ffb09ed05
1008f9f90401fdf6
0dff030d060d04fc
fbfa0bfd0f18ff0a
fff9fbff0004fcff
06faf9f8f5030e11
ff03fdfc07fe00f9
0c00f7f50301020d
fffcfef8ffef011f
0300fc0208fa0501
050200ff0bf408f0
03e8f101f201fafb
e703f9fff8fe0cf6
15ed040101fa07fb
010604fcf70e03f8
06f9fcff0103faf8
f90eed01f9fa13f6
07f900ef01f6e5fb
f6fc00f210fafffd
f602060ff7f90315
fc020af10d0807fb
f50ef50100fbfbe5
f9faf8f70505fdf0
0b0305f8fdfafbf1
fcf407f3121f0cfc
f5f90cfafeff07f7
08fb05150ffa06fa
fd0dfcfafe0114f2
fef4fcf4f6f7f6f9
fd0ef51406f90803
03ff0302f4f61105
00000ef7f70303dd
fffd0dfaf9f50204
020df7070202f724
0c07fb0afff2f9f5
fffefffb0601fa15
01fff3fe05fafe03
03fefc09fe00050d
fe010702fe04fa05
0bf5fb03f702fd11
09f7f6ff0b0cf3fe
f0fd0c0c02f003f2
02f409000d070302
0e060601f9ff010b
fcff09fdf8fff8fc
0a0908fd000306f5
f80a1005f40706eb
fffa000afffff901
0d0b01f7f70a02ef
0ff6f808fcfbf30d
0902effe0103fcf7
070c00fcebf604fd
03fc18f0f9fa09f1
07f7f7effbf9fe0c
040209f2fdf2fdfe
0afb03fcd8fcfd10
00030004f9fa0101
e7040003f705fdf3
fcf1f208fe04f70e
fe0702fb0d000606
f600faf5f1f10005
fe0a0802f5fd04fc
02f5f9f000ee02ef
fcfdfaf907fef504
030103f9fc05f8fc
fb0504fe0101ff00
0600050af90600f3
04fa06f7f9f5fdf2
fefcfefff6fafb0a
07f6fb020102f5fb
0802fffd07fe0001
ff0dfcf6fafffe02
fd00f502030301fc
0108fffc03fffd03
0ef802f902f60803
040006020cfdf9fb
fafcf102090bf8f4
fafe00fa07060bfc
0603f8f608fefb05
0df8fdf2f1fef813
0ffeff060bfef4fd
040ef70203f9fdf8
04fcf30a02ff02f9
fff70f0713060409
0503fffcf70a04f6
03fffae9fd001b0a
05fefaff020bfb00
09050cfbfc03030a
09fef2fafafd0404
0107fd0501fe05ec
fbfc0005000400fe
04f2fefdf80402f5
f400fdfa06060201
07f218fe0d0204fc
f8fd09080be5f005
fa0007fe0400f7f3
0ae2fd0224e2effc
0cfbf4e609f5090e
101c03dc16eb28f9
02f6140801e7f50e
0bf4dff4eb1f0eea
ebee2f0616fdffda
0e0c1be708f8fcfd
13f9f0f7e8f20111
2806fced15e7000f
1518e811e8f8f629
ec10f521f902f31d
2503f803e3fa0dda
e4091bff0bfd0b09
3be207f5f001fdfd
200203f6e4de04f2
f3050306f2ff18e4
eefff9170e10071b
fe1f170a0a0b0702
03f0ff0f1bf00101
0cf8fa03fbf10402
f4120c05fbec04fb
081a110802fb3801
e9070714f9ff092a
0df0ef230631fa00
1efa06ff0bf400ff
080a0b0c13120802
0301050c1cfff9fb
13131bf90010fdea
fd1513fc040b0604
0aefeb1400fb0505
16ec12f1070c12ff
0002f806f9ecf7fa
0b03ee02f90b0812
0bfdf90503020404
ecf8ff090ffb0cf6
07fb010804100604
050b01fef113fdf5
05fce5fffc01050e
0301f1120a06fcf3
0207fa0704fffbf7
ff0aff0706100bfc
f2fb0a090cfbf607
f8fe06fffbf91705
01effe03dffe0206
0bf203ff0c0909fe
0106fff80ffd0cf7
faed0401e8f322f7
0101fb05f301f3ec
34e7f4df0506fffe
f70d06ea09f110f5
e905e408fdf2ff02
fc1b06fb06f20113
fcf9f604fb0efb0d
0f00ebec02020623
0f02070c0d07fbf3
08fb09f5e4ff02ef
03f0f3f0e6f40314
16f8020404fafb10
e6f3f4f7e10a10e9
f6feec13d6fc0602
05fafc08060817f2
0606e80b05effae5
f8f706fff30406fb
0cf3f606f9f2eef3
f3f4d90f0206ea0a
f1f9fa0007f902ff
1b07f1eb16fef703
03f1f81c09130b06
f3f2f601fafd0df5
2ffc2deff6f0f91a
f1f01225f1fb0504
08f4ffe4f1fdf50a
0e1a06f9f4e71c0f
f702feedf5070bfe
161501170d08fbf9
19f9fa02fff50409
f8f81424010409ff
081210eee7fbecfa
fb10faf3f3dffd12
f704f0031700f10a
e9f30d06ff01fa08
f813090c04f4ff0d
e7fdfef4f21ef60c
01ec06f002040410
02fced0afafb1b04
fff5fef303001113
f0fb08edfd09fc23
f201000efafe0cf8
e9f4fcf2090c1415
07110203f8fb030f
0d00ff1b050109f4
01fef610e6fef0f3
edfbfb080dff1600
18f203fcfff80bf2
fffd0b17fdff0322
fd0c08051003fbfc
f103fdeb0812fa05
100c090802f80ef1
07fffff804090212
02f1f7f90cf6050a
fe0910f6e50af9fc
fcf8fd04fc030309
040701fef1fffd03
fe090df9eb04fd07
0316fcf9fcfc0403
fe000b0cfefa0807
fff9001504fa13fc
0807f804ed0501f0
f1fe0308f401fbfb
0e020a0012f5f7ff
fbf6ff03f3fa00f6
04041304ff0300ff
eefc040103191205
f407fbea00f207fa
f502fafe12f30214
070bf9f2101a0901
f5fc0ff5fffe13f5
fbf9fdf502010a0d
05f4020a000905f6
0411f457e8010a15
fdf4fafef7ec1aff
0a01f406fbf6140b
f706fafdf3f5fc0e
1306e8edeb00f80a
020320081d190b03
e6fdfaebf0001102
f5f6f6edf906fa03
f7fb0b17fdfff70c
0ce0ef1b04fb031e
fb08f80afa05ecf2
e9faecf61600de18
f6ec0b0d15185522
fcfdfb04fdfd10e7
12ee3603f0152e04
1425f3ecef14fe0f
fa090c03ecf8281f
0523f9f3fb0218fa
1209f3e10a02f31e
fdfd191e1e1b1316
feeb0909d40109fa
f706ddf2faf8fcf7
0628e712dc0f09f8
ff0206f3f70afe05
fefbfd0aff07fbfd
03f305080cfbf7fb
000e0103fcfcf600
05f614f7fef70214
effdfb010803000a
0d02fcfbfe0afafa
04fbfa010b080df7
0008f60805020101
00f504f501f80109
faf90200fd0105fd
0d07fa0906f2f5fa
00fb0d021cfc0ffc
04f210fbfa0606fc
0609040cf9fd04f4
0e020203fb040c00
faf80af3f9fdf701
fe1df802fffa0bf1
efe4fff706ecf1fe
09180d18f8ee081f
02f3e8e00dfafb04
f1fcf6050207070a
02f1f905fefffff8
e5f5e016fd043af2
eaed0002eef8f60a
ee0c1bdded05e006
f308f2e0e6ebf5f8
0500f62e0d020a0d
f9fb07ffeee4f2f4
0deefbfacaf9f6fb
e803fceaf5eafeee
f806eeffedeafde3
050616fce0c804f1
f21f00091fed020b
0101ff0002ff00fb
02ff0101fdfe0203
00ff03feff02fef6
01fdff01fcfdfbfa
fffdfd00fbfd0002
fffb05fc0000fb03
fbff0101fdfdff02
fefcfbfe010001f9
02fffcfdfcff0401
0600fef9ff00fcfa
0300ff0400ff04ff
0005000103ff00fe
050505fefdfefefe
fefeff0000ff0202
fd00fe0202fe00fe
ff0201fa00030407
060502f8fd0cf8f5
f2f503fa020a01ef
0f040b11fc0df9ff
effa08fbfef8ff03
f306e9fa030ff5ed
0efff407f7ecfb00
010901f3ef020c0a
02faee02fbf7faf6
fe01fa02070bf4f9
11ed030801fdfd01
fc03ff00f2090202
08f60709ff01f9f4
0b020606f6fe0ceb
02fa00040e061804
f8f9fbf40303fefa
f4ee08010510fd00
e4fa0efffaf409e3
080031e90105f3f2
f1e4f2f5f9e700f5
e2e5f4f0f806fef3
08fede07ffecf0f1
e8040404f401f9ef
f200f50cf4fa01f7
efef0308fe08fded
f2e31102ebf7f2f7
13170bf8f5f807fe
e2f7f5f9e1f9eb0c
fb04e3f00a02f4fe
f2f703edfefd0707
03e4e9f8f402fde5
eb0012fc07e3f8fe
f20406f007f6f4e0
00e1fc011303f5fc
0006eb19fefffbff
fb0cfaf601120304
f70600ec050a0408
02fd0e0101fc0816
faf903f5f6040308
01040f08070bff00
fc0d0afffafa08fa
05fa0504ef04f2fe
0cf505fefefb070b
f803fd01020905f6
0213fcfbf704f7fe
f301fa1003faf7f6
f403fbfbfef2ffff
fee8fa0beefd0af0
ff030e10fdfcf6f6
03fa0008ff0115f2
fef0fdf7fd1207ec
fd0c15fdece9fbf0
00eee6eedef2f0f2
03f5f2fb0901eb0d
f1ff0003fcffe3f1
f3fbf3f3f80003ff
eef5ee101ff7fc09
f1fff30a0003fd01
0afbeeeb00f3f3ff
fe01fefce1050103
fb0113f210f6faec
f904fdf3fcfbe625
0df60400fbfdf5f5
05fffd0407eefefa
f1fd02eff6fdfb25
fefc050e0d07f80b
0b00fd08fffdfd09
f6f1ecf51bf90802
01fb0b030a09fd01
fcf8ff021400f1fb
f3f6f7f301fefb0a
f802f31806faf5fa
09fefaf202040307
090005fbf7fc0502
1106030302fd0201
ec05080bffef07fc
0700faffebfe13f5
f0fe1e0805f2fff3
02090ef4f102fafd
f7fd06f00002fafb
060f0610030603eb
01e4f7eeeb0ffe09
ef08fa0803f10708
effef6000b24fff0
f001fdf600fafa13
fe0af00ff7210401
08f502161f000208
e5040cfae80906f8
022407ebf4f9fcec
21f821fcf311f419
fa06f8e3f6efe81b
1bfef1110de70305
00f6da01fc11ebf6
0828f222eb1dee0a
00edf7f0171be2f8
fc0dfafeee19f104
0c26f5fb08013216
0ef0f8f402f32013
0003fa1403f9f30a
15060af004f7fe0d
fcfff6fb080d0801
23fff80df301ff0a
07fc0cf9fcfd0bf8
03000801eafef9fc
fa0af5fb22ffff01
f5e4e6fcfff40c09
fdf7f403fe010117
0404f9fc0c000b08
06f5f300f005ff11
00fe1708f5f9f8fe
0df20716f9f80909
11fe1202f0f6fbf0
fc03fb0cfbffe305
eef806f907f00601
f216f91807ffffff
f9f8e2f22112fe04
05fd0320fd0a0307
0304ff08f1ffe606
fbf8fbf3fa00f706
f8fffcf6fdf5f902
08f104e6fd020303
0200f0f7fcff1004
fef6ecff0110fefe
fdfb0604f8fffafc
0f11f3f6f9fb09fa
f0ff0d0905050afe
f70afe040d03faf8
0e03fcf50ff8010f
00000300050509f7
23eaeef6fefb0914
fd04fc180201fe0f
131c12f305f6fdf3
fa06eff708040515
06070d12f7090304
05fef5fe02050b0e
11fe090f03f2fefe
fafff816eb02f611
04ecfbf9f31101ff
0afbf610f9f20dfc
f808fe0206ff02fe
140200feeeff0009
f309110b0603fdfe
f6e8f5fa1fff1a00
fdfafb04e914faef
ea070afdf201f401
f2f40a000606f10d
fc06f805ff0105fc
00110bfc0906ff0f
fcf50ffb0505060d
f503fa090202faff
070af6f4fe080905
0bfffd0202fc03ff
0efff612f000fffa
fbf103fe07f30ef6
fe020401000a0701
0bfffcfffffc0f11
0704fc08ebfffcf7
fd0003010c02fdff
0c0508ff0202fbf9
00fdfef6fff7f607
09fbff09000109fb
ee0d0afdfc071c04
f2f8f4f5fdf516f3
e5e0040c07fc05f1
e709f701ededfdec
01fef4f805f4fee8
fa0702fc08fff9fa
fdfd02eb07100000
10edf90def0dfa1f
0d23f5112214eef6
f50d16defbf708fc
09f7f9ead8fbf6fe
faf5fef2e9ffe713
e2fdfdfbfb07fd17
0118f5f313f8fa00
f7f1f9ef10f1fe36
0bf607fa180001f1
09fc0100fb06f602
f00b09f70904f405
02fff306060200fd
01f807f701040500
060100000303f701
fefbf9fefd000709
03fe03fa0bfffd00
09fc0504f30001fe
0100fe00fffd0803
fd01ff03fbfe0009
05fbfa0807050501
0603f7fffbff04fc
010009ff090101ff
f80800f90702fb06
fcf903fcedfefefb
0003fa01ff02f8ff
